[PAD]
[UNK]
[CLS]
[SEP]
[MASK]
!
"
$
%
&
'
(
)
*
+
,
-
.
/
0
1
2
3
4
5
6
7
8
9
:
;
>
?
A
B
C
D
E
F
G
H
I
J
K
L
M
N
O
P
Q
R
S
T
U
V
W
X
Y
Z
`
a
b
c
d
e
f
g
h
i
j
k
l
m
n
o
p
q
r
s
t
u
v
w
x
y
z
~
¢
£
§
«
°
²
³
´
º
»
½
À
Á
Ä
Å
Æ
È
É
Ì
Í
Ð
Ó
Ö
×
Ø
Ú
Ü
Ý
Þ
ß
à
á
â
ã
ä
å
æ
ç
è
é
ê
ë
ì
í
î
ï
ð
ñ
ó
ô
õ
ö
ø
ù
ú
ü
ý
þ
ā
ą
ć
Č
č
Ď
Đ
đ
ē
ė
ě
ğ
ī
ı
ļ
Ł
ł
ń
ň
ō
ř
ś
š
ū
ų
ź
ż
Ž
ž
ǂ
ǎ
ǔ
ǫ
ș
Ț
ʻ
ʿ
Ά
Ό
Α
Β
Η
Κ
Π
Χ
ά
έ
ή
ί
α
β
γ
δ
ε
ζ
η
ι
κ
λ
μ
ν
ξ
ο
π
ρ
ς
σ
τ
υ
φ
ό
ύ
ώ
А
В
Д
Ж
М
Н
П
Р
С
а
б
в
г
д
е
з
и
й
к
л
н
о
п
р
с
т
у
х
ц
ш
щ
ы
ь
э
я
ӕ
ַ
ָ
ּ
ג
ה
ו
ח
י
ל
מ
נ
ר
ת
ا
ب
ة
د
ر
ط
ع
ق
ك
ل
ن
و
ى
ي
َ
ُ
ّ
ْ
ܐ
ܘ
ܛ
ܝ
ܟ
ܢ
ḓ
Ḥ
ṭ
ả
ắ
ệ
ἀ
ἅ
ἔ
ἰ
ὲ
ὸ
ῃ
ῖ
ῳ
​
‎
‐
–
—
‘
’
‚
“
”
„
†
…
‬
⁺
⁻
₂
₃
€
℔
−
⟨
⟩
九
公
兵
史
太
头
宝
寶
州
日
本
梦
楼
法
玉
省
石
红
衢
語
记
賈
贾
通
ﬁ
－
##e
##i
##ð
##a
##r
##n
##j
##ó
##s
##y
##t
##o
##ø
##k
##d
##u
##9
##2
##7
##g
##l
##0
##6
##v
##1
##h
##x
##ý
##f
##m
##á
##æ
##3
##8
##c
##5
##4
##b
##p
##ú
##M
##T
##í
##z
##½
##ر
##ق
##ع
##w
##ä
##G
##K
##P
##C
##S
##O
##E
##A
##F
##R
##ç
##ã
##D
##N
##J
##H
##é
##ö
##ệ
##ž
##I
##W
##å
##ñ
##L
##B
##Q
##q
##à
##ī
##ǎ
##ε
##γ
##ό
##μ
##ν
##ο
##ô
##U
##ط
##´
##α
##τ
##σ
##ρ
##φ
##ή
##Y
##ắ
##ō
##î
##°
##υ
##κ
##λ
##ά
##ς
##V
##ř
##ü
##е
##т
##р
##у
##ш
##к
##а
##ǫ
##ả
##ṭ
##ā
##ū
##Z
##ו
##ת
##ż
##č
##è
##š
##²
##ǂ
##þ
##³
##⁺
##Ð
##я
##đ
##ș
##ù
##‎
##â
##õ
##Í
##ł
##ُ
##‬
##ě
##⁻
##ň
##ì
##Á
##ś
##ć
##д
##Ú
##г
##н
##ι
##ί
##X
##ß
##η
##ַ
##נ
##ָ
##ּ
##ה
##έ
##º
##π
##ῃ
##ύ
##ğ
##ג
##י
##ל
##ï
##ن
##ا
##ك
##ي
##ة
##δ
##ﬁ
##ı
##с
##و
##ل
##ى
##ʻ
##и
##ц
##ń
##ź
##ξ
##Å
##ἰ
##ῖ
##о
##з
##Ó
##ْ
##َ
##ب
##ّ
##ą
##​
##ώ
##ы
##б
##в
##п
##ь
##ų
##э
##ὲ
##л
##₂
##₃
##ὸ
##ḓ
##ê
##й
##ë
##ǔ
##ῳ
##ē
##ļ
##щ
##ė
##ܢ
##ܛ
##ܝ
##ܘ
##ܟ
##ܐ
##in
##ar
##an
##um
##ur
##ið
##ir
##st
##er
og
##il
##að
er
##tt
##en
##un
at
##al
##sk
##ri
##on
he
##ør
##ann
##ing
##am
st
##di
##ini
##le
sum
av
við
var
##ig
##la
til
##or
##av
##inum
##kk
ver
fy
##is
um
##oy
te
##ft
##ór
sk
ein
20
fr
##vur
##ól
##and
##it
##nn
##nd
##ik
##im
##gg
##gv
##pp
fyri
##ður
##at
##ast
##nar
se
##ak
##ál
eru
##om
19
hevur
##íð
##ólk
##øg
ið
hann
##urin
##ll
##ag
##ær
##ey
##ði
##itt
##lig
##et
##ra
tað
##ni
##num
##ggj
##kki
men
hav
##el
##jó
##unum
##ari
##na
##nir
##ev
##end
##andi
ikki
##ong
201
##ara
##est
sam
##ss
##isk
##øroy
út
so
##jør
##ul
hj
##00
##isini
upp
kom
##eg
fólk
frá
tí
har
##ftir
##sl
eisini
##ti
##ða
hava
##und
ár
verður
eitt
varð
##eið
##øk
hon
##ang
##ist
##ingar
teir
##lag
##ina
18
##leið
##ógv
##ug
el
vór
hv
br
hjá
##ill
##es
##nað
tr
##tur
##ík
##ald
##iv
##úgv
##ol
##ska
al
land
Hann
sí
##øð
##du
##æl
##ans
eftir
##em
15
gjør
##yr
##leik
##erð
17
##ta
##øv
tá
##uni
##tta
fl
12
##ro
16
13
14
fram
10
##ók
##ja
fyr
11
ella
seg
vóru
##unn
tey
25
##re
##aði
##liga
stór
##yg
##eir
fle
##dur
23
##ðr
Føroy
bý
26
24
##una
21
27
##ætt
22
sp
29
úr
28
nógv
##ip
##ov
##irk
##mar
fe
##ut
##as
inn
##ndir
enn
Tað
##enn
##inn
##erk
heim
##ftur
ný
##avn
##ús
200
##us
##ein
##iri
##ng
sj
##era
##all
##os
mill
##art
##ond
le
##sta
##stu
gr
##kt
##ent
St
##imum
##ón
hes
tíð
verða
##dd
##búgv
hev
fleiri
høv
##átt
##aður
##utt
##var
umleið
hevði
aftur
##fr
##ot
##óð
undir
##íðan
sær
for
##álv
eina
verið
tv
##áð
teimum
tann
##øl
gjørdi
føroy
ar
nev
byg
vera
##vir
##ggja
##he
ferð
He
##ild
##rar
fá
##riv
alt
##yst
##ber
##arar
##iður
oy
nú
##iga
##ia
dag
hvør
##anum
mál
##app
lí
##ót
kann
##uð
##ning
##ks
##æði
einum
##ís
kr
##óg
bl
##orð
##fe
Hon
##ðu
yvir
##úk
millum
##99
íbúgv
sjó
##beið
##50
##fólk
##okk
##80
##20
saman
##ind
##66
##arv
ve
sein
øll
##94
##84
skul
##70
##74
fj
##71
sv
fór
##sm
##93
##73
##21
##53
##81
vit
Tá
##br
##90
hel
##91
##24
##23
##51
##60
##83
or
##54
gjørdist
##sti
##sin
##ingin
íbúgvar
##ett
##64
stør
##ggjar
##nt
##63
##og
síðan
##yri
##61
komm
##ýr
##unnu
kv
##ad
##arnir
##ansara
her
##skum
sm
##ift
##lá
met
ber
##id
hetta
##óti
ann
##ic
spæl
Ein
##op
ym
##ok
##uss
##fl
hansara
væl
##øm
##skap
arbeið
tý
bygd
Føroyum
##ers
skriv
fekk
##ap
##jór
##88
##lan
sett
##igg
##org
end
Har
##ynd
Hetta
##72
##lagið
##jar
Fr
tær
##75
sjálv
min
van
##øgu
skip
tó
##95
##ard
fáa
bú
##ki
##man
##oð
##lu
bæði
##øll
##land
##98
##endur
##up
oft
tal
##eð
##sen
##92
##76
##96
vak
##irkj
nak
##tíð
##78
##úr
##ttan
all
##sku
##æst
leik
mest
Men
##jóð
##ka
ser
meir
str
##vør
##eyð
long
ligg
##ort
##ust
##ud
##tøk
stov
##33
ím
##úgva
##44
##25
##tr
##ull
##øt
##85
hesum
Um
lond
##11
gera
ger
løg
##før
byr
##65
##ilm
Teir
hen
##astu
fer
##sh
##aka
Sk
##ág
##urnar
fing
##uðs
niður
##øn
##ansk
##ld
##30
lív
kapp
##ark
##fyri
##irnar
heil
sig
##77
##atn
kunnu
##ió
##sa
##22
##40
##ars
sl
uttan
tek
##inna
par
##ver
##pa
##støð
koma
ymisk
Sam
##arn
##egin
Bý
gam
##aðu
2013
##nni
##ónleik
##óm
pr
Tey
stað
##10
Nor
rætt
##skip
##sins
bur
##iti
##86
##arð
##si
2010
skal
ofta
øðr
##arin
##82
mið
vórðu
##li
hand
best
vald
##ch
##felag
fyrstu
sang
##97
Býurin
##ótt
##sv
Tr
##ningar
##ub
##uður
##str
nevnd
liv
honum
lag
má
##55
##fram
sjón
liggur
##øgnum
##ab
##jum
øllum
hin
##14
##eld
##iska
##tal
ára
##ndi
teirra
búgva
sera
##ørð
vann
##62
##enda
landinum
øðrum
Sum
000
góð
##34
##eðan
døm
kem
lið
part
##mál
##jøgnum
##anska
høvdu
mann
merk
##ygg
burtur
navn
virk
lang
##sp
##set
##leiðis
##varp
tónleik
tók
##ligt
vil
nýtt
bók
doy
ung
##ju
##itur
seinni
bara
##31
høg
##ting
##ana
##skt
Føroya
eg
##asta
##át
##alið
##ion
##ember
hús
høvuðs
##ikið
##undi
de
##ødd
##pt
##mark
kommuna
Ch
##landi
felag
100
kirkj
##ah
##ból
##erik
annað
##ørn
##illum
sínum
aðr
fara
##af
##ýri
##ita
##nnur
Br
ví
skuldi
lim
fyrr
kemur
bert
##endi
roy
##nu
kl
##yð
##de
##imm
##øði
##dar
##stað
samb
bólk
##irnir
##økur
##ek
##87
##ma
##menn
##æt
##89
##ðrenn
øk
##sam
Le
vatn
árini
Hes
##alda
##tan
am
meðan
nor
rík
##rik
leið
##arnar
nýggj
Jo
ble
kon
##áp
móti
##æð
30
##ár
##alt
##gr
lat
pol
##dnað
##ussu
meira
Ar
mong
##ýra
##ongur
2014
flokk
50
ev
##oll
##áv
##íggjar
##eyt
fyrsta
##35
##ingum
lít
hví
Gr
##kv
##úl
sama
##ferð
útg
heiminum
Al
áv
##41
Føroyar
film
list
##ed
##26
byrj
bein
##ost
##itið
##iónir
##ív
Av
onnur
sín
hæ
gom
##yl
hvussu
søg
Dan
Fólk
lutt
##arb
##eyp
gjørt
##framt
vís
##yn
##mann
##arl
##tu
##uar
Síðan
veg
##sb
##79
##ali
partur
okk
##lend
dr
lík
##nara
hild
lær
##ilig
heldur
ma
taka
##ám
##slu
##rum
##ung
starv
brú
skjó
hjál
Kr
Suður
børn
##boð
##úla
##anga
landið
kvinn
mynd
##su
##æk
##amál
før
of
milliónir
jørð
##hús
##irð
##ingini
býnum
kommun
pro
So
fisk
fót
##maður
##orn
frí
lands
hug
##rk
##ingi
##uk
##ve
2011
2015
bleiv
##akk
2012
##estur
brúk
##att
##dir
##anda
týd
loy
næst
##ac
##lar
broy
Fle
##nin
##ígg
ferðir
smá
kend
##SA
Eftir
##ráð
##leikar
##mi
##oyr
innan
tvey
stovnað
eini
und
støð
##undur
##bólt
##36
##nna
Fyr
lý
##søk
##od
##øgum
nið
##vík
Land
æt
##45
##ingur
stjór
40
gre
vel
##eist
##uliga
##lut
##32
##skift
USA
eitur
ong
stutt
flutt
Her
halda
val
##ónd
##hald
uppr
árið
sjúk
reg
sn
tú
##ikin
gav
øld
##kom
metrar
ge
##15
##for
fyrst
tíðini
hó
nær
##ott
##ingina
hesi
nakað
serliga
hennara
fingu
dømis
norð
plá
##iliga
##ví
##ant
fýra
km
summar
##evnd
sítt
##aðir
føroysk
##yk
fær
##ob
Eitt
##ell
##ass
##pr
##frøð
ímóti
Sj
áðrenn
##isku
trý
sína
##indi
##naðar
##vi
##jóða
bar
siga
##etur
##lum
##arum
190
grund
vanliga
Við
kong
oman
##øður
##gerð
##ment
##úkk
##enna
##skeið
orð
ímillum
60
kendur
nátt
Norður
gjøgnum
lóg
##óður
komu
síðani
møgu
on
##bý
##ert
##akt
##ongd
einari
mat
yrk
##við
##urt
##unnið
merkir
##nini
byrjaði
Danmark
ganga
hana
##sum
##bú
##anfyri
##sr
##69
##øld
hvørt
The
##rist
##igur
skrivað
allar
Tann
báð
sle
##yggja
##ím
verk
son
##ystur
spældi
fingið
Sein
fø
mun
tjóð
vin
##ank
síggja
##innu
##ani
tveir
polit
##be
oynni
skulu
##flokk
landsl
amerik
and
##nast
##íl
##stýri
svim
Ne
ov
##bur
##ligum
havt
##yrk
##rop
fóru
Nú
gull
##67
##alla
doyði
borg
pers
##gjør
194
##naði
At
##æla
##ilin
##ley
fólkat
gamal
Tór
re
##stov
sigur
en
##27
##aðar
sjál
##skipan
fimm
##veg
##int
##tti
##aliga
sel
segði
##ow
##mum
mentan
##iskt
nógvar
størri
Joh
##sett
##har
##sem
##68
##ras
trið
##avnið
##úsund
Ev
##ummar
stóð
kall
víð
soleiðis
##ondini
90
dre
##ensen
heilt
70
##val
##stur
##omu
menn
##ugt
tíðar
skjótt
ógv
##verk
##ák
##ork
##asti
londum
Vág
ætt
##tum
##ern
eins
norður
Nógv
Og
Til
gift
##hvør
heiður
##eva
hvørjum
80
##28
skr
juni
ljó
##ei
brúkt
boð
##dag
inni
vaks
handil
##søg
##29
stig
##agt
##uli
2008
dagar
And
hálv
mark
útbúgv
navnið
vet
ál
frem
fótbólt
dyst
##ck
atkv
fyl
skift
flestu
tætt
##ess
##tir
##vel
##amm
##egi
tvær
Fl
Fyri
uml
uppi
fólkið
oyggj
bø
##tar
##inal
##ens
##alig
samst
Am
Hans
síð
##rík
##13
##agn
gerast
barn
ráð
##isl
##ith
gjørdu
framleið
Stór
Sp
lut
##mið
##út
##old
stórt
il
nummar
túsund
virð
##ran
##rit
195
skrivaði
sjónvarp
hæg
pen
sy
viður
##ært
##ib
##ba
altíð
minni
Hin
tur
##hug
##far
felags
El
##jan
##tók
##ala
tel
##aks
##ivið
búðu
stovn
mang
rá
##lað
##43
##aðurin
##ation
##astað
ró
sæst
##ga
##íggj
##rot
fjøll
hjálp
mett
##onnum
sínar
##erki
leggja
altjóða
ógvuliga
Or
há
man
svar
ting
##øtt
størsta
kundi
leg
##ddi
##mp
seta
undan
bil
les
somu
vør
##ukt
##va
stuð
##avnar
skald
##leika
oyggjar
veður
fjall
aðrar
Eisini
søgu
##ddur
##fj
##oyra
síni
150
dagin
##upul
henni
##ningarm
Jó
henda
##our
skap
2016
fólkinum
##yrg
stórar
føroyskum
ferða
For
Tær
far
mót
##fest
##ski
stóran
setti
31
Tv
kav
##rætt
##jur
##vís
##enni
stat
stendur
##ygd
seinastu
næstan
Havn
hátt
##opp
##ín
##aðist
##trótt
Mar
geva
jan
jarð
kn
sý
##ión
##part
standa
##iskum
##ivin
leiklut
slepp
megin
ol
tos
##ff
##arh
##eri
stødd
##evn
##undum
180
##ugl
120
spæla
kring
vanlig
allan
hildin
des
kj
nøkur
##jú
##lit
##pur
fly
føroyska
##felagið
Te
finna
kro
ídnað
##ay
##tin
##nisk
samband
191
hond
##ugust
Fe
Tí
eigur
lit
vunnið
##sar
##amil
##aga
##øðini
stóra
stórum
sløg
døgum
tikið
##ober
##gjøgnum
##skot
##amb
heimsins
##heim
spælt
bestu
liva
onk
lá
##ep
skóg
forset
helt
týð
náttúr
tíðarskeið
##astaðni
gud
##ie
##ale
##ggin
býin
týdningarm
Høv
Sig
aft
dey
eyð
##øtur
##ha
##agar
##sløg
eld
longu
Fleiri
Se
nov
sátt
##ling
##aða
##rikk
##ons
##anna
sterk
##eldur
uppá
2009
langt
ávirk
mai
áhug
##sn
##ori
##rab
170
Frá
januar
Gu
bát
nóg
##unt
##skúl
##amp
einki
##akað
##eløg
130
býur
arbeiði
stríð
tekur
plan
øki
##reg
skúla
fyritøk
tríggjar
flo
fløg
flog
2007
størsti
deild
bet
gongur
hol
mió
ígjøgnum
##jast
##oft
umboð
einst
##jóri
110
skuldu
Samb
Suðuroy
45
eiga
javn
ley
send
##ce
##íki
140
býurin
arbeiða
okkara
fíggjar
##rað
##rat
##yggj
##ue
##ála
##aráð
skil
##eym
##undu
250
mánað
sjónleik
gomul
luttók
Kirkj
Upp
don
full
hend
neyð
renn
sil
vinn
##jandi
upprun
summarið
sin
suður
vik
##als
fjøl
fylg
ferðafólk
De
að
ring
ta
tikin
Ár
##æg
##ord
##sland
landbú
stóru
##utning
lítið
ongan
Norð
eyg
kort
mis
##ýs
##pin
##ligar
##ingarnar
flest
løgting
nevndur
pláss
ey
næ
sundur
ítrótt
sept
hvø
160
##berg
málið
helst
persón
Løg
Th
august
rú
reið
##ou
##evni
fólki
##bruar
##vegis
35
mars
februar
nýggja
arbe
All
Hó
Pál
##ji
##gong
##inar
##stjór
##itin
##ndur
uppl
trupul
270
størstu
kvinnur
54
Re
hoyr
lætt
##oss
##gang
##enj
##skar
frið
breið
##ksur
ork
400
gott
ræ
##arm
##alist
alm
230
Str
føroyskt
sleppa
33
hitt
##sf
##ttp
240
210
290
2005
endur
oftast
##semi
Mið
http
jarn
juli
súkk
vestur
##sjó
##kka
##ism
frukt
alla
stórur
260
220
280
2004
høvd
##iddi
veturin
november
ak
mátt
##ins
stein
mennisk
úti
##slim
34
Ný
fla
kalla
landi
the
##sit
##skriv
árunum
nevnt
##verandi
Trónd
gekk
september
41
noy
okt
vest
##sý
##mir
##inir
##unnar
2000
##ligu
2006
longur
lu
slag
vinna
##ru
fát
vaksa
mesta
maður
##sfólk
##met
##rift
hvat
býr
##skapar
sjálvstøð
##deild
gomlu
Sv
kundu
rok
##bo
##bók
##byrg
##anin
##umm
##entur
##ingurin
##sson
##jørn
184
##ystir
veksur
##smerki
limir
borgar
##isløn
rennur
dri
famil
##her
##ine
##umframt
komin
trú
tve
##ararnir
##lands
##óttir
lata
illa
silvur
hvønn
Hóast
32
be
sagt
vat
##son
##sent
##da
##skur
##ore
árum
flý
framman
blað
orsøk
##ømi
eyðk
Hel
Tý
deyð
sól
tri
##íg
##onn
heit
##las
193
##ropa
fyrsti
nýta
##láss
vísir
týdning
desember
51
65
84
Sm
klá
sið
##eftir
##juni
##ytt
##esta
samfelag
fólka
býtt
ors
mink
55
Ge
djú
fast
kla
##tast
##vt
##hav
##mæl
stýr
##ggur
##aldur
nakrar
##undis
beint
300
Be
Eystur
Jac
Kapp
Sand
Svør
dýr
eingin
hál
in
lág
##yndir
##ames
umframt
skúl
felagið
##flutning
líka
broytt
uppruna
landslut
44
75
danska
##tak
##uv
##skúla
##ørk
##unnin
veit
tóku
landsstýri
John
74
85
Van
Vit
kun
reyð
sunn
vorð
##idd
##kall
##dan
##kkur
##evs
##øvn
##innan
##breyt
enda
lagt
høgt
##rope
sjálvur
##ithøv
Sh
fev
ljóð
##iðið
##ilmar
##omm
##jørð
bret
hóast
samstarv
94
Pa
sla
##júk
##merk
##án
##ili
heitið
stav
heimin
##frøði
annan
flutti
500
71
Ol
##ry
##rin
##óðr
##sd
##gar
##lík
##skin
heið
sjey
grøn
##tíðar
Seinni
oktober
Ma
Ong
egg
mist
Áðrenn
átti
2017
brot
##naður
##ondum
##ich
skriva
viðurskift
oyggjarnar
Sigm
61
95
Mari
Sjó
apr
bús
cm
røð
vøk
##ás
veru
fræl
##iskur
181
tíðina
liggja
gamla
staðin
partar
limur
##dep
Hesin
hædd
hildið
føddur
ljós
legði
flyta
64
Jógv
Mo
Tur
byggja
goy
minn
vunnu
##rið
##dóm
##list
##bólk
##ona
##annes
##oyggj
##tist
einaferð
talan
allir
valdur
útgáv
Høvuðs
trimum
81
91
gó
givið
##øgg
##vis
##veld
##fat
##ún
##ingu
##ingið
##laks
seks
##omet
##øki
gjørd
171
oyð
talið
prosent
53
Er
koyr
krist
##van
##vers
##lekt
skot
nógvum
##jarg
vanligt
##trú
vildi
økinum
ávís
vísa
niðan
svimj
týðandi
betri
orsakað
an
finn
final
keyp
##ikk
##rø
##ufólk
##borg
##irði
##leiki
vilja
fólkatalið
tveimum
apríl
43
Af
hoyra
kunn
meg
tor
Óla
##afólk
##nevnd
##jal
##ge
##ger
##gongd
##æti
##ildu
##elt
##slan
185
endaði
##anskt
ymiskum
bólkinum
##eistara
Felagið
Ann
Tó
dug
hú
nøk
rithøv
##ney
##yt
##lið
##ama
##atalið
##nari
2018
154
164
144
úrsl
##osi
##ølum
prest
kons
lýs
Sjúr
New
kropp
Jógvan
Høg
indi
jú
monnum
sita
##iel
##ddu
##fall
##ire
##skir
##undan
##ugu
174
161
114
blóð
svør
víst
Sjálv
Tórsh
##veldi
ongantíð
fátæk
bera
bónd
eyst
##vu
##mur
##iss
183
almenn
151
121
131
134
framle
101
vita
meiri
parti
Hesi
Síðani
ætlan
sindur
Løgting
42
Kong
bygg
grik
læt
tæ
1980
##ligur
harð
##undin
##undar
141
254
234
##heiti
sjónum
##øtu
ymiskar
parturin
aðrir
Joensen
##árið
kommunu
Evropa
heiðursmerki
73
Bl
James
Par
Russ
Ung
bak
kol
veið
##fø
##ávur
##rim
##ggjast
125
124
104
111
231
264
211
221
224
291
281
heima
hesa
føroyingar
Heim
nakran
staðfest
rættiliga
besta
sambært
##samans
politi
beinleiðis
myndug
##ákup
vatni
Ber
Eg
Film
Jákup
Nic
dám
hildu
lend
##if
##rinum
##gur
##bi
##staður
##ilomet
##alinum
heyst
stundum
verja
204
##atur
##akr
##nivers
útvarp
261
241
244
214
274
294
2001
2003
##statt
settur
kirkjan
okkum
jørðini
brúka
gevur
barna
aftan
upprunaliga
Svøríki
63
Me
Undir
gl
kongur
op
rey
##nan
##jald
##kur
##gev
##gáv
##enta
##ont
##andur
##ligari
133
framfør
251
271
284
nógvir
bygdini
roynd
pening
Hvør
Po
Vest
páp
sav
##ier
##hol
##mynd
##ít
##igh
##raf
##araftur
høvuð
annar
##íggir
enskum
Týsk
An
Kina
Klaks
af
dóm
gu
jó
##junum
##stør
##stýr
##risti
##les
##øgd
1500
##uth
leggur
krav
annars
spælir
Fram
livir
egna
skrá
Georg
800
Kv
djór
dyrk
fang
kan
rein
Øll
átt
##ron
##aland
tess
##ongu
2019
##illi
##yrka
105
gransk
Umframt
londini
slík
lagi
virkin
lítil
Alt
##íggið
felagsskap
Klaksvík
52
fest
key
Út
##se
##ock
##par
##innum
##anar
##skil
##onsu
einar
##ikil
##rad
##slend
##naðinum
155
115
oyggin
fjór
##broy
##stral
økið
Flestu
##flokkurin
gjørdust
sáttmál
kunna
83
Fre
La
farin
mikið
##ðing
##inga
##inginum
umhvør
skor
1999
1990
1998
ment
##iskar
##ult
153
175
býar
leingi
hesar
##yggin
sambandi
latin
evrope
niðri
sonur
93
Ak
Ve
dans
fim
fødd
hund
##gen
##mb
##alg
##alin
stytt
avgjør
##isráð
hvar
165
##ash
formaður
føroysku
krón
Einei
bygdir
endamál
Harumframt
serst
hendi
Bret
báðir
landslið
Jóh
farið
36
38
Eur
FM
Hús
Hval
Pet
Sa
Ser
Tal
Tjóð
eystur
rak
sá
tung
ók
##virk
##fon
##stíð
##ildi
frum
sey
##agr
útlend
árinum
ald
##øðum
123
273
##dda
nevna
##smaður
##støðu
bókment
felagnum
útbúgvin
álop
støddar
Sambært
48
Bók
Co
hinum
kor
kyn
váp
##io
##kar
##ils
##ille
##rig
205
##itet
1993
255
265
225
forn
oynna
kapping
doyðu
evni
Fj
Far
Ital
Indi
eta
føð
lok
áður
##já
##ukk
##aranum
##unkt
stak
##lett
einans
##nist
##ggju
fólkum
##eiður
173
135
235
213
215
275
spur
285
Stør
bygdur
Umleið
løgreg
staðið
starvast
víðari
bøndur
sjónvarpsr
olju
62
Ikki
ant
kjar
mu
ney
tj
ur
vand
##ønir
##kapp
##aðum
##skor
##rivar
##laf
umtók
skj
##ity
samans
bronsu
163
143
145
##inda
svam
minsta
búði
vaksin
valdið
##staðurin
báðum
Vági
deyða
luft
Jacob
landslutinum
Bæði
Mong
Millum
Oyggin
UC
bor
elekt
kent
íslend
##rini
##yd
##ýt
##bl
##amann
203
##esi
síggjast
##ros
103
113
233
263
243
245
295
bygt
sjógv
byrjar
Leik
jørðina
valdi
##hvørt
samstundis
72
Henda
fug
læk
nav
vegin
yng
°C
##ach
##dr
##ýp
##ýtt
##stein
##untíð
##rika
##igar
##ggi
##slandi
trø
##øðin
framvegis
253
nýt
fors
nevndi
londunum
kappingina
okkurt
Kring
kallað
einstak
júst
37
46
82
Gud
bøkur
bjarg
fall
sat
venj
##nið
##lur
##linum
##ham
##hand
##arg
##alandi
##ris
##aksin
##ligan
##ulus
223
293
283
form
##ótu
##fess
Frak
minst
minutt
lívið
##bólti
vatnið
nýggjum
##rasil
útbúgving
Stóra
lesa
aðal
Tróndur
Kappingin
nøkrum
##ilometrar
Eineias
66
ES
Jes
Navnið
Rey
bot
bard
filmar
kre
korn
post
væ
ári
##run
##ton
##lir
##lendi
##vegin
##umb
##stjóri
##aldi
##leg
##ativ
1994
sostatt
##sluni
varðve
tríggir
##rok
kríg
skipað
nærum
fótbólts
stuðul
##parturin
ávirkan
kortini
rúm
klass
fevnir
konsert
39
68
Hv
Jan
Mál
Pr
Ver
ab
dyrka
mugu
runt
sendi
##jet
##ós
##sla
##dýr
##mála
##byg
##alis
##ørnum
##ingir
ste
##iger
skatt
##álk
1970
samk
##undið
##asm
grann
tvør
##spart
##ollvel
selt
dystir
virðisløn
##aleik
eldri
krónur
Italia
58
92
96
bá
hagar
vist
##az
##oe
##lóg
##úg
##skóg
##one
stand
skel
##gvøll
1996
##rahús
stórir
hesin
##ntern
góðar
langa
##mannah
førdi
Lands
##burð
giftist
atkvøður
Amerik
UCI
Grikk
Keyp
bank
fin
sæð
Íslandi
##sur
##tingar
##tikin
##oc
##okt
##vald
##aru
##stri
##stav
##skr
##skoð
steð
##oys
##øgur
##iski
sosi
harvið
trúgv
afturat
##ningum
##fólkið
sjálvt
##anski
##dnaðist
##manna
hugs
velja
báðar
veðurlagið
nógvur
56
Bar
HM
Han
Hav
Mort
faðir
gildi
rør
vøt
##sg
##oks
##londum
##hen
##sturin
tilfar
##oyar
##ðurin
##økt
162
##ress
inntøk
nevndir
ferðav
ferðast
##ningurin
longri
##øtuni
Summi
maskin
grein
mentanar
##harri
almenna
úrslit
Sjúrður
Keypmannah
Ab
Anna
FC
Mad
Per
ST
funnin
tør
vind
Úr
##aftur
##ne
##sskap
##ynn
##laði
##vág
##hu
##fi
##band
##ídnað
##ward
frøði
##ika
1991
útflutning
122
##rein
býum
212
blóm
svart
skipan
##ført
##arðar
miðdep
hvít
##ukur
tosa
mánaðir
trupulleikar
##byrgd
goym
finnast
57
77
76
86
Inn
OL
hað
ly
pá
senda
##ly
##lunum
##æv
##ings
seyð
##akapp
1995
##íða
##jógv
komið
##slum
##sløn
##ógva
tryggja
##ivu
gjørdar
132
102
262
242
foreld
##indum
##smið
##okrat
sjálvum
sigst
##abólk
manna
egnu
vídd
royna
Hesir
Avstral
smáar
Landið
oyggjunum
donsku
arbeiddi
jarnbreyt
nakrantíð
hundrað
frøðiheiti
49
47
78
88
Hoy
Kol
Ta
Univers
bí
koyra
##ðini
##nyr
##yggjar
##ymp
##udi
##ári
##ines
##anarar
##enti
##alar
##oynni
temp
2020
sek
tíggju
##sluna
152
gjørdur
142
222
##innuni
##alli
grind
máli
hernaðar
##ussen
Fran
heilsu
vildu
Christi
##ekur
##ylg
##iligt
triðja
sjálvstøðug
sunnan
##føri
98
Ant
Dis
Havnar
In
Is
Mus
Oft
Sch
Val
dimm
rygg
rødd
yn
##ivur
##nastu
##jál
##sók
##feløg
##stir
##lad
##oyggjar
202
menning
172
2002
búskap
##føra
kappingini
ymiskt
Saman
##felagnum
##framleið
##ætlan
Arbeið
Grøn
kommunur
Fyrsta
##søgur
Hansen
hægsta
syng
viðurk
##ational
eydnaðist
næm
djúp
antin
samkynd
600
Dag
Mal
Nik
Niel
Tor
borð
fak
fugl
kost
kenna
mein
nám
rit
russ
renna
sukur
##ðar
##rir
##nev
##øða
##kær
##larnir
##hví
##min
tilsamans
192
196
1992
1997
##øgan
alment
112
252
##reist
232
282
##heit
arbeiðir
skipa
##lupp
strondini
kappingar
langur
kirkju
royndi
ríkis
##æðið
mongu
smáum
##flokkinum
Andre
vørur
mátti
Poul
##arafturat
muslim
Disney
87
Krist
Man
Niður
Pro
Rasm
Sta
fong
gul
gingu
kær
loft
rús
sál
slupp
tap
átta
átrú
##iftur
##ai
##aw
##tið
##ola
##film
##ania
##umtók
##illa
##alur
##alurin
##avík
umfat
skrift
##endir
##undir
##istan
182
##olog
118
266
272
292
##óðir
##smann
##smál
tali
slætt
miðal
virksemi
1000
mongum
kvinnu
stjórnini
amerikanska
selja
kjøt
áhuga
##rabb
vorðin
##ight
##illiam
Ed
Kort
Sl
fann
funnið
kanska
##ónar
##armál
##støður
##erað
##ennir
heild
avgerð
skú
1989
##rael
samgong
tímar
bre
træ
##leikin
106
##artil
##rivat
kríggið
sve
##smenn
helm
vælumtók
bygdina
meiril
uttanfyri
Noregi
sjónleikar
Summar
vísti
##staðni
ríki
##greið
profess
Fyrr
norðan
##býur
yrking
##skúlanum
flagg
dripin
jóla
minuttir
Mang
Næst
Niger
Wor
William
di
dóttir
jø
mitt
neyt
sand
##lim
##qu
##ino
stud
einasta
##ator
1974
1960
##nia
uppskot
##økinum
166
246
##allur
seinasta
sven
##ada
smær
arbeiðs
búð
búskapar
Hesar
flokkurin
luttaka
fótbólti
Fyrst
sjáldan
skifti
turk
veðurlag
upplýs
Sigmundur
finaluna
navni
97
Aðr
End
Lat
Pol
Vestur
børnum
gongd
gentur
kat
myrk
ovur
privat
valið
ánna
ør
##ðin
##rak
##nina
##óta
##ovur
##ood
##dum
##vin
##mans
##ink
##aran
##arunum
##erv
##alag
##skj
stjóri
einasti
1966
hart
harav
##slur
##turnar
178
126
146
107
116
236
býir
276
226
296
Ste
hvørki
##ningin
bygdum
livandi
dømi
##spæl
fyrrverandi
##staðin
filminum
gomlum
Fyrstu
stjórnar
hóp
drepa
##íggju
neyðugt
nýtslu
Kringvarp
Hen
Karl
Petur
San
Sim
føði
hø
hag
ill
mótt
vinnu
ánni
##edi
##ipp
##sliga
##srael
##hø
##bor
##bygd
##ump
##alend
##alondini
##onsku
heitt
##ame
stýri
##ish
206
198
1984
1988
menna
samt
uppkall
##økið
##leikarnir
136
108
256
278
286
heimas
leita
grót
##frá
##ølini
kvinnum
##ersen
rættindi
sangir
liðið
ungdóm
húsini
høvuðsstaður
økjum
nýggju
søgdu
støðum
turr
fjøllini
fjøllunum
tosað
onkuntíð
Thom
fruktag
klár
slapp
búset
Keypmannahavn
Avstralia
59
67
Ale
Komm
Lu
Oyggj
gras
jól
syst
topp
vík
várið
##adi
##juna
##ómar
##ys
##ykt
##FA
##arætt
##stat
avtal
verks
skaða
fyriskip
1973
##ssur
fólkini
186
188
156
158
148
117
fleir
237
238
248
216
218
228
298
##osa
##ondina
##otor
nevnist
##heitið
##rarnar
ymsum
##skapi
##lub
##ómver
##tals
kirkjuna
lærari
##akka
støðu
stjórnin
snýr
##frøðingar
omanfyri
Seinastu
##vísi
flogvøll
donskum
landbúnað
Tórshavnar
lendið
Talan
kjarn
##nyrðing
Barb
Ferð
Hend
Island
Mon
Pri
Tíð
Tour
Ven
feløg
hini
halg
ital
ke
lø
lótu
ákær
##lari
##lingar
##ýst
##co
##ír
##ster
##ile
heiti
##amerik
summum
##isp
tein
einsam
207
208
frál
##ands
##itar
fyrisit
##atr
##atión
197
útr
##øku
187
aldur
landsins
176
128
168
138
258
267
288
nógva
##irkja
hesir
málum
##ningur
##ide
##opt
settu
##orgun
##anskur
prý
lagdur
hinir
liðug
klæ
vísind
loys
greitt
fluttu
sjúkrahús
##vín
##akteri
##ddist
Tvøroy
floks
##onnunum
##veldið
kunngjør
Høgni
keypa
99
Eyð
Finn
Gl
Hug
Ing
Mynd
Magn
Pic
Rom
betur
dá
gra
móður
odda
rað
rund
revs
tunn
##nur
##ógg
##sj
##yp
##uti
##ven
##høv
##mót
##áb
##anka
##amar
##lefon
set
seinnu
1972
1985
##olum
##øðunum
##emokrat
157
137
147
##ðrið
268
##enning
##erkið
hvørja
bland
talinum
prógv
Noreg
navninum
bólkurin
##ætisráð
Fólka
yrkingar
Vágs
fremst
framleiða
skapa
leiklutin
sjónleikari
arbeitt
frammanundan
Filmurin
aftaná
haðani
Fisk
Jos
List
Mart
Meðan
Nev
On
Roy
Vatn
fígg
hor
krabb
lov
læg
mik
papp
søl
ábyrgd
##yld
##kl
##hi
##hit
##arf
##stór
##alond
##skrift
hell
##legg
viðgerð
##narin
1975
##eyg
##leikari
framhald
247
217
277
287
millión
greið
tíðliga
veing
##ick
##lukk
##ortug
Skip
sigla
bókstav
útgivið
films
børnini
##amálið
fiskiv
##eistari
##skifti
##frøðilig
reka
hægri
róp
týdningarmikil
##aráðið
Allir
hoyrir
heiðurin
Ólavur
heystið
skrásett
Jesus
World
verksmið
700
As
Brasil
Dav
Eið
Eingin
Gam
Hæg
Ind
Onnur
Wal
dent
horn
ná
rø
rís
sh
unum
##jað
##jari
##oti
##djór
##uel
##lin
##ædd
##ca
##bund
##erg
##eng
##amin
avmark
umb
1986
##ittar
##eth
##napp
##jørg
##leikanum
177
167
227
297
##asavn
hermenn
spældu
strendur
løgd
løgdu
byrg
heils
miðbý
tónleika
konufólk
##søkin
##víst
##evndin
onki
yrkis
junior
oyggjum
synir
javnan
Kirkjan
vikur
fjølbroy
Ársins
sjálvstøðugt
frælsi
góða
Sjálvt
afrik
Faroe
Mortensen
smærri
69
79
Del
II
Je
Jør
Lond
Mark
Sc
mamm
nokt
rómver
sag
situr
to
tyk
Ísland
##óri
##sfor
##yll
##yng
##usk
##upp
##vinna
##havn
##hild
##mm
##bil
##blá
##brig
##skari
støði
##dist
summi
vardi
##igartil
##oya
sem
##akast
1950
1953
##ague
##esti
##ulið
##slóg
##tión
##eiði
##øðu
fløgu
127
257
stórbý
býunum
grav
##áttmál
veita
##ice
endar
##ardag
##støðum
sangin
doyggja
ríkinum
Fólkið
skjót
fiski
velta
##haldið
##skeiðis
orðið
norðurlend
Nógvir
barnið
teldu
rópt
mettur
Tveir
knýtt
onkur
Smith
##holm
Týsklandi
Fred
forsætisráð
Hand
Kon
Ráð
bo
ból
eita
gent
kar
leir
lendi
myndir
pla
só
salt
utt
##ec
##ninum
##sir
##sskipan
##vaksin
##19
##ánar
##are
##ena
##alív
viðvík
eind
havið
##ulin
##ulív
hjú
uppreist
##unda
teirri
##naðu
nýggjar
undirvís
nevnast
##beiði
seinna
##ope
##lant
leikarar
streym
##shús
kappast
tekni
staðnum
aðrastaðni
klæð
League
flokkur
flokkinum
Fólkatalið
##alifor
starvaðist
jørðin
Soleiðis
reglu
norðara
##ímun
svimja
Neopt
mangan
##gaard
Upprun
fjølmið
aðra
súkkl
##sjón
máttu
##deildini
Vanliga
##eistaraheitið
rithøvundur
Russland
Oyggjaleik
##mótans
Neoptolum
89
Col
Dr
EM
Hol
Li
Mat
Pe
Ro
Sve
Vík
bað
fjør
gald
klett
kilometrar
letur
mj
mor
mold
opin
pør
sann
sent
syð
tok
áin
##søgu
##ykk
##uta
##vum
##vtin
##fugl
##by
##brot
##ze
stev
sumri
teim
skrivar
##ligi
##estu
samd
sokall
##slætt
trygg
##iva
##eira
tví
blá
blivin
blivu
veitt
##landinum
##tøku
##shav
uttanlands
##sverk
góðk
Char
##samt
kona
konu
Arg
útgivin
vegna
landsd
omaná
náttina
##øldini
##harrin
##dagin
handils
vetrar
deildini
##óðrar
misti
Sjón
Jacobsen
900
Ad
Award
Bein
Djur
Enn
Fri
Jens
Kl
Lít
Nøkur
Rem
Sør
She
buss
emb
gj
giftur
játt
kop
løtuni
mam
net
song
savn
##rá
##síð
##kan
##utta
##uks
##gera
##fari
##bar
##pi
##inos
##iðja
##stól
stjør
##avirk
skem
skyl
##vurin
##ggir
havinum
##eli
##ella
##iskir
fólkar
##skapp
nýmótans
milli
grø
metrum
bygdar
##jarin
##tíðini
##tøkan
gerst
lívi
sigl
##verri
##felagsskap
##ørðum
høgur
víg
klæði
klokk
útgav
Fólkat
##lendingar
læra
hjálpa
##eistar
føroyskur
møguligt
møguleika
enskt
fremm
náttúru
sáttmála
##skúlin
viku
eyd
orku
almen
kallast
flýgur
politikk
Nicla
dyrkað
India
venjari
Ofta
heimasíð
Tvøroyri
Martin
##alifornia
galdandi
Ang
Bo
Kat
Mik
Mag
Met
Matt
Nið
Sosi
Uttan
fag
fæst
gong
griv
ind
lógg
pí
rest
tik
tim
tøk
Øssur
áir
##runum
##ný
##súkk
##gi
##hyl
##ætta
##bra
##ball
##pen
##pláss
##TO
##arta
##aðust
##alendi
##ones
##onskum
##ingunum
##amaður
vart
sker
1981
1978
1977
##agarð
##rap
trop
##oliti
139
##ason
##stad
grá
##ølunum
málini
krev
##ogn
##førum
byrja
lívinum
Samst
##strondini
Summir
virka
ungar
vín
roynt
leiðari
nýggjari
blett
flokkar
filmum
listafólk
##eypis
starvsfólk
stovnaði
lýsa
##óðurin
##orku
innih
marknað
mangir
bilar
vøru
fjallið
kava
statinum
##partin
høvdið
minnis
góvu
oyðim
Tórshavn
Jóhannes
ókeypis
tjúkk
samansett
miðdepil
Rasmussen
Nigeria
milliard
Niclasen
Con
City
Fug
Ke
Kun
Lim
Megin
Pal
Pla
Rober
Sang
drot
hótt
kap
kyk
rý
Áin
áskoð
ód
ófr
##sbr
##ya
##ynt
##tor
##kast
##løg
##17
##final
##fylg
##ætur
##bein
steyp
tiltøk
##iser
##omp
##omen
1971
1964
##ólkurin
##uld
##egur
frágreið
##økurnar
hval
treyt
##iver
##emp
##leiklut
179
##øvnum
##ættir
heimsm
##arte
Stat
tvs
yvirhø
smitt
ymsar
##apan
##lukapp
##øllin
tala
vakurt
##anskir
sanginum
nevndar
##elda
góðum
burturúr
tónleikabólk
bókina
annaðhvørt
evna
vegir
##ungur
stovnaður
regn
km²
Orð
deyður
plantur
fløguni
Kirkjub
vinnur
Páll
lættari
allastaðni
familju
heitinum
skúlanum
viðurskifti
búsett
Afrika
serstak
vápn
##ollvelting
##ynning
##huus
Neoptolumos
Sveis
yvirhøvur
Aft
Bara
Eyst
Fugl
Ho
Hví
Hák
IS
Kar
ell
eks
gøt
góður
kur
kald
mø
rav
røtur
vis
yr
##ian
##nis
##ym
##ota
##vig
##vit
##vatn
##hr
##arí
##anir
##umál
##stig
##stovur
##ener
##enos
##unk
##unar
##alær
##rid
##ørur
##amenn
eink
209
##ata
##atíð
199
1982
menningar
##nirnar
##iskap
uppaftur
##ugr
trúgva
##úgvin
169
109
tíðin
tíðind
kríggj
yvirl
yvirlit
##brúk
helvtin
##oga
##ade
bygdin
##uper
tekst
langar
##ahl
latið
førum
off
##húsum
##ack
kendastu
niðanfyri
greinar
##stovu
stóðu
víða
dystin
Flokk
ilt
##laðið
mótmæl
Tvey
jarðar
skilja
hendan
fylgja
##ismu
vestara
##ummull
trúar
Onglandi
svimjing
##biar
Veður
syngja
Kommun
London
Bur
Fo
Fær
Guð
Hot
Harafturat
Intern
Jav
Lær
Mc
Min
Mós
Pers
Sil
West
Yvir
et
etur
higartil
ken
kaf
lin
mý
mans
myr
oyr
pos
punkt
røk
ull
vill
venda
ót
##san
##tá
##taka
##kað
##kore
##vs
##ho
##han
##ævið
##bum
##arti
##ila
atom
##alu
still
strik
verandi
1963
1961
1930
1987
1969
samráð
sov
##ulla
hjart
uppí
##slam
##laga
159
floy
149
framt
fyrra
býráð
spr
299
##asen
##use
##allið
hesari
yvirgang
metra
##iddu
nakrir
kappingin
ymisku
##ubl
livdi
partin
egin
kirkjuni
bólkar
Leivur
hvítur
##alif
loyvi
broytingar
plátu
##ímóti
sonevnd
álvar
##útgáv
##evnuni
kross
vinnulív
Streym
menniskju
fólkasløg
veruleikanum
Høvuðsstaðurin
##veldinum
svørt
svørtum
##størsti
Grikkalandi
finst
Franc
profession
Næstan
Hendan
Magnus
dámar
umborð
Upprunaliga
Djurhuus
Samstundis
Robert
Bot
Børn
Cl
Gre
Ha
Hø
Kal
Mic
Myk
Pól
Park
Páp
Rætt
UE
Vin
bind
eit
ferk
gos
garð
gass
grikk
kór
líð
níggju
pass
rann
sen
ven
##jing
##svar
##tikið
##laðu
##16
##myndir
##48
##anina
##ste
##ene
##skan
verju
umv
einf
setur
##akistan
1900
1976
1962
##ager
havi
##jós
samkom
útfl
harumframt
189
brenni
træl
##leikan
flúgva
129
##ropp
##ross
##rekk
239
219
279
229
nógvan
##asavnið
##ddir
bygdu
fáum
hvørji
##orðið
##arvið
##brú
orða
##ograf
kvinna
kvøld
smíð
sjálvan
##upu
##øtir
Skot
niðurset
lívs
kappr
Sama
miðskeiðis
##svøll
hinar
partinum
ungum
høgum
##menninir
amboð
luttak
líkist
kommununi
##veður
brúktur
sjúku
##form
norðanfyri
##frøðingur
grundar
orðini
lógir
persónar
Andri
skifta
##aligt
virðisl
telur
ráddi
sínari
skaldsøg
Felag
luttóku
løgtingsv
akti
Paulus
lýsir
kroppinum
dámdi
##andura
##stýrið
George
kanst
fugla
tvørtur
Amerika
Christian
Isle
Endamálið
sóu
embæt
UEFA
Air
Best
Dahl
Fro
Hein
Hansara
Inni
Kor
Kalifornia
Liv
Mann
Ph
Sn
Søg
ad
búk
fí
fat
fiska
givin
gongu
kirkja
knapp
liti
nokk
ross
sit
tol
vir
##ekt
##nám
##nalist
##sjúk
##yss
##kr
##der
##lær
##mun
##37
##ci
##inver
##irg
##strar
ognar
##alk
##onsk
stoy
avfall
tilnevnd
veruliga
ske
franska
##atúr
seld
1940
1979
1967
##age
##iskari
elsta
##íkar
framsý
119
259
269
249
289
##ova
tíðir
##bert
kanningar
##indar
vitan
##544
##ica
##skapars
bústað
##eðra
longdar
##orth
uttanrík
gamli
gamalt
ungu
latín
##kvinna
søguni
føra
##veit
kendir
øldir
Danmarkar
##aligu
svarar
somuleiðis
##ygdin
##skotið
forseti
náttúruni
fløguna
landbúnaðar
plássi
persónur
noyddist
sunnanfyri
##oyggjum
fjórð
skoraði
landsliðnum
nevndist
bardaga
Málið
##spartinum
útflutnings
##ympisku
Nielsen
tykist
viðvíkjandi
Fuglaf
Aftur
Bø
Bjar
Gøtu
Kan
Pi
Son
Sov
Super
Tork
Veg
York
bann
doll
danskt
drap
fo
hit
høgg
kos
me
maðurin
motor
neðra
róð
rógva
sæti
tons
útt
##rom
##nunum
##ótta
##sag
##ua
##12
##magn
##39
##38
##post
##úð
##ansku
##alum
##skú
##ament
tilnev
skeið
skyld
##ólv
##ati
##ake
##akar
##ligir
##eløgum
##ending
##lagt
##leiðandi
elstu
##naðurin
trumm
##ivnar
eftirn
leit
##ildið
##iðurskift
hvørs
veðrið
seint
fjar
vitj
##240
kvenn
kvalif
##flog
##tíðina
sermerk
strondina
##442
prent
nýttur
bókin
bókini
##315
##aferð
##358
filmurin
beinan
lærdi
prot
##íggi
velt
gavst
##komin
politik
politiskt
Athen
##own
##semið
dreingir
hálvt
Spania
hjálpar
Orsøkin
hátíð
##øttum
stuðla
##fjøll
kavi
hondbólt
##heiminum
tíðarskeiðið
##øturnar
bátar
Sambands
samfelagnum
háls
Turk
framleitt
##størsta
avgjørt
yngri
Hoyd
Music
ovurstór
juniormet
fjølbroytt
Jørgen
mjólk
Javnaðar
Móses
Andrias
Det
Dansk
Hjá
Kj
Kim
Lit
Longu
Nól
Pætur
Sól
Sint
Ter
Un
bakk
bummull
du
eftur
fjørð
hent
kast
lis
leyp
mm
munn
rót
rundan
sak
søk
turt
vøkur
valt
Ír
Ísrael
ásett
##óp
##song
##savn
##yvir
##kj
##gávur
##18
##hjál
##monnum
##che
##57
##49
##bát
##úv
##we
##anes
##ske
##averk
1983
##tion
##økum
##ógvi
##ivág
##oli
##olf
býta
##usv
bygdi
bygning
núverandi
##660
##666
##664
##844
fjalla
##smaðurin
##731
##219
##212
##217
##210
##216
##211
##213
##218
##215
##214
##915
##249
##242
##247
##246
##241
##243
##248
##245
##244
##239
##232
##237
##230
##236
##231
##233
##238
##235
##234
##519
##512
##517
##510
##516
##511
##513
##518
##515
##514
##605
##549
##542
##547
##540
##546
##541
##543
##548
##545
meta
berg
ymsu
##722
skipaði
##987
##765
##969
##339
##332
##337
##330
##336
##331
##333
##338
##335
##334
##449
##447
##440
##446
##441
##443
##448
##445
##444
##259
##252
##257
##256
##258
##255
##110
løgmaður
##659
##652
##657
##656
##658
##655
##777
##229
##222
##227
##226
##228
prís
prins
##107
øðrvísi
sangurin
##stríð
##559
##552
##557
##556
##558
##555
##349
##342
##347
##346
##341
##343
##348
##345
burturav
virkar
##seta
##319
##312
##317
##316
##313
##318
##árini
##359
##352
##357
##356
##419
##412
##417
##416
##413
##418
##415
listanum
##269
##267
##268
luttikið
##yns
vegnum
##húsið
##369
##367
##368
##459
##452
##457
##456
##458
##329
##327
##328
ongin
##komandi
trýst
munur
svartur
Teitur
tíðarskeiðnum
##meti
roknað
Olsen
Maria
ávísum
grikska
bakinum
Hvørt
umhvørvis
aldri
bókmentir
stakrík
Hanus
vælumtókt
upplýsingar
keis
frálík
Picard
350
Ala
Cast
Fer
Fac
Jón
Japan
Ka
King
Les
Lóg
Mor
Menn
Oyggjar
ban
bakteri
co
dótt
dukk
dýp
git
gev
ko
kg
kenni
morgun
nøvn
sók
toll
ván
ír
ón
óhe
óføra
##au
##jin
##slig
##garð
##læk
##59
##52
##56
##58
##42
##47
##46
##bro
##bjørn
##pæl
##úm
##íður
##arði
##arliga
##ane
##urð
##skrivar
##oni
styrk
stjørn
##avist
vertur
##isa
##issi
umbo
ummæl
umstøður
##oyggin
fræ
##ath
##atkv
##atali
1920
##eyst
##eta
havn
##iskup
##egnum
##undurin
1800
##íkinum
##úgvandi
almann
1600
##jaft
##rek
##innuna
##eindu
##ktiska
Stutt
##áttur
forða
Heil
Hekt
nútíðar
##999
##992
##997
##990
##996
##991
##993
##998
##995
##994
##809
##802
##807
##806
##801
##803
##808
##805
##804
##669
##662
##667
##661
##663
##668
##665
##949
##942
##947
##940
##946
##941
##943
##948
##945
##944
##849
##842
##847
##840
##846
##841
##843
##848
##845
##709
##702
##707
##706
##701
##703
##708
##705
##704
##749
##742
##747
##740
##746
##741
##743
##748
##745
##744
##719
##712
##717
##710
##716
##711
##713
##718
##715
##714
##939
##932
##937
##930
##936
##931
##933
##938
##935
##934
##739
##732
##737
##730
##736
##733
##738
##735
##734
##539
##532
##537
##530
##536
##531
##533
##538
##535
##534
##819
##812
##817
##810
##816
##811
##813
##818
##815
##814
##909
##902
##907
##906
##901
##903
##908
##905
##904
##919
##912
##917
##910
##916
##911
##913
##918
##914
##609
##602
##607
##606
##601
##603
##608
##604
##839
##832
##837
##830
##836
##831
##833
##838
##835
##834
##649
##642
##647
##640
##646
##641
##643
##648
##645
##644
##639
##632
##637
##630
##636
##631
##633
##638
##635
##634
##619
##612
##617
##610
##616
##611
##613
##618
##615
##614
kvæð
herdeild
metið
##889
##882
##887
##886
##888
##885
##729
##727
##726
##728
##725
##759
##752
##757
##756
##758
##755
##959
##952
##957
##956
##958
##955
##989
##982
##986
##985
##929
##922
##927
##926
##928
##925
##769
##762
##767
##768
##962
##967
##968
##965
nakar
##789
##782
##787
##786
##785
ímynd
##859
##852
##857
##856
##858
##855
##119
##112
##117
##116
##111
##113
##118
##115
##114
Skála
##anskari
##309
##302
##307
##306
##301
##303
##308
##305
##304
kappingum
##779
##409
##402
##407
##406
##401
##403
##408
##405
##404
##109
##102
##106
##101
##103
##108
##105
##104
##869
##862
##867
##868
##829
##827
##826
##828
##979
##streym
##149
##142
##147
##146
##141
##143
##148
##145
##629
##627
##626
##628
mannarætt
tónleikari
doyr
ungur
egnum
høvuðsstað
aðrari
lima
bólkin
##879
Leiv
vatninum
leiðir
hvítt
hvítum
##sbólk
broyta
##159
##152
##157
##156
##158
møguliga
munandi
##ílur
1948
sjáld
dreing
Flog
##139
##137
##138
##ritið
##439
##437
##438
##ournalist
##tinent
týdningarmik
fyritøkuni
borgarakr
drip
landsstýrismaður
grønmeti
viðurskiftini
keypti
eystan
tænastu
veiða
Hvalba
Størsti
sjónvarpsrøðini
krevur
vænt
##azz
næmingar
Mangir
fyrisitingar
Romulus
Wales
strendurnar
##brigdi
timbur
Kirkjubø
Sovjet
umboða
Bú
Bygdin
Cup
Carl
Gunnar
Hamm
Ju
Lív
Mich
Pakistan
Rich
Tim
bi
dómar
eig
eyk
ham
hól
hitin
intern
kalend
løn
mo
múr
pall
rom
rók
røðini
sú
sun
senn
slagið
virði
Øk
ís
óv
##ien
##jir
##ónum
##of
##lond
##ljóð
##per
##NA
##stra
avleið
verri
##oym
##narar
sess
##álop
##ome
##estiv
fólkav
##tic
##undinum
##aldar
##olit
##leikum
##repp
býirnar
spí
innleiðandi
enntá
heims
##óðskapars
bygningar
##rarnir
fáar
##ararnar
sjóvar
##509
##502
##507
##506
##501
##503
##508
##505
##504
##209
##202
##207
##206
##201
##203
##208
##205
##204
##indini
seinast
helvt
arbeiðið
sjálvs
sjálvstýri
skipar
allari
strí
longd
niðurlend
##anskar
valdir
sangari
##ahús
##afar
flokkin
evang
lista
##arbólk
##sborg
hjáland
lýð
velur
##ford
##øðurnir
møguleikar
tjóðskapar
##stovan
##skipanin
Johan
##verkið
##dagur
síðu
lutir
ráða
vørum
sleppur
Tele
stríðast
fyritøkan
sinni
ringt
Allar
##stjórin
ræðu
vestan
borgarstjóri
beigg
djúpt
Sigmund
fræls
áttu
Jóhan
Petersen
Saint
Fraklandi
steðg
umfatandi
katól
samtykt
systk
krevja
drotning
kapit
Flokkurin
International
Torkil
Ap
Ass
Bill
Bert
Bólkurin
Conn
Dam
Eld
Eli
Hal
Hatt
Kn
Lou
Pier
Reg
Ruth
Syð
Tú
Vic
Ym
bjóð
islam
kle
kók
krim
lid
ne
pól
sild
sitið
tun
tenn
túr
ww
Æt
íð
##iftir
##ain
##randi
##rans
##ypt
##te
##th
##kja
##ula
##vaks
##heiður
##merki
##ára
##car
##cord
##bre
##bot
##puni
##ör
##anini
##ument
##ttar
##skald
stál
stutta
##leggj
tiltak
##óru
skógv
eintøk
##ikt
##iku
##atri
##aki
##akv
##elg
##jón
##evnu
samfelagið
##iskan
úts
tíma
bringu
trív
##íkið
##dust
spor
##over
##asam
##erkla
##einur
grøði
##óndi
##búgvar
undirskriv
foreldur
málinum
bløðini
íbúgvum
íbúgvunum
vitja
Eins
##flyt
minka
skips
##landið
##eyðk
heilivág
tekin
livdu
liðugt
manni
merkt
##spur
##spláss
húsum
royndir
lítla
luttekur
brún
myndini
frítt
brúkti
stjórn
##óndin
snið
kongi
matvør
politisku
andaðist
svimji
seldi
drekka
ráðgev
framleiðslu
##farið
Elin
mangar
rán
svarta
tinglim
##amband
##heimin
##eph
##aráðharri
neyðug
suðuri
Árið
orkest
orsøkin
vorðið
samstarvi
Pauli
lýsingar
tænast
politikki
pápin
savna
savnað
høvuðss
Týskland
fjórða
bøndurnir
varðveitt
krígnum
báti
steðga
##heitum
sluppu
fruktagóð
Barbie
pappír
Asia
Frederik
Hákun
yrkt
Færø
dollarar
Sovjetsam
www
Ask
Bu
Borg
Can
Em
FI
Há
Hálv
Jørð
Kári
Long
Lut
Na
Rock
River
Salt
Wik
You
bund
bumb
gle
himm
jap
journalist
kjaft
læ
last
nr
rakt
sip
tra
torn
vendi
áarb
íl
##ee
##ih
##ium
##nam
##ónir
##slag
##ole
##off
##økk
##gu
##vara
##vsøk
##hag
##mo
##port
##angg
##ering
##untr
##amark
##dia
avger
viðgjør
tilburð
vernd
umsit
skiftir
##ate
##eyður
##els
tískil
##leiðari
elva
hve
##emb
1700
1200
spak
spre
##irksemi
leig
##ddar
##iddur
settir
tóna
allur
stovna
gerandi
Sumba
góðir
døma
liðnum
mannfólk
merki
aðru
leiðini
nýggjur
flokkum
hvítu
Grand
##eder
##ostur
kvinnurnar
##irðisløn
fiskiskap
brúkar
loyvt
lýtt
ætlað
føroyskan
verkætlan
vinstr
##leys
fólkating
triðingur
skrið
##fjøður
Jóannes
forsetav
sterkt
áhugamál
plantu
fløgan
fullkom
hendir
##skrivari
eyðkenni
Helenos
siðven
##havið
reyðum
úrslitið
byggir
útvarps
Akille
Bretlandi
seyður
kyns
føðingar
umtókt
Frakland
abb
pápa
ynsk
Poulsen
muslimar
helmingurin
uppkallað
ábyrgdina
teknifilm
skyldu
fremmand
lóggáv
inniheldur
milliardir
Meginparturin
Orðið
##korea
Høj
internet
Hattarv
Bre
Cla
Don
Dre
Ger
Gutt
Hall
Holl
Kh
Len
Lud
Mil
Mel
Nap
Nevndin
Rein
Song
Sunn
Sýri
Sáttmál
Talið
Vet
Virg
arab
ep
firð
fult
gerð
hendur
meld
myn
reist
radi
sunnu
tyr
tub
univers
vát
æv
íblá
##rør
##nurin
##nandi
##ód
##ópur
##soy
##tunum
##tek
##øta
##kit
##kirkj
##ues
##gin
##lv
##lop
##feld
##minn
##plan
##íst
##zz
##indur
##stan
##alon
##dis
##lev
tilv
##avi
verð
##oysi
skót
skeyt
##ikan
sesong
##eyða
##elsen
komnir
komandi
##øksturin
##angar
elv
trol
als
alsamt
##ansen
1400
framúr
framvið
##unninum
spenn
##marks
##utu
heimsp
Stein
##øli
føroyingur
##ildin
kanna
##ogi
smakk
##skapin
##skapur
týskum
nakra
##vern
gamlir
valdu
##tali
##ørðunum
dømdur
kemst
liðini
virki
virkaði
nýttar
ungarnir
høvuðsheitum
Christ
nýggjan
##íva
søgurnar
líkjast
##húsinum
broytti
støðan
lýst
Landsins
##skiftið
región
føroyskar
grundlóg
kongurin
Norðurland
føst
tjóðart
politiska
Johannes
Tilsamans
giftast
heiðursløn
markið
fremja
##aligum
Stórur
##útbúgv
sjónvarps
pengar
svaraði
##øttu
##fjað
meginpartin
vanligur
sløgini
skógur
forsetin
ávirka
umboðar
Suðuroynni
fíggjarliga
##aráðnum
eyguni
næstu
uppliv
trupult
Record
friðar
Svim
flýggja
Helgi
sólin
klára
veitir
skotin
duga
pápi
Bókin
urt
##handil
Landsstýri
Úrsl
foreldrini
Hoyvík
##udio
Andreasen
átrúnaðar
flaggið
##skjálv
klæd
blandað
##ortugis
Hægsta
miðbýnum
##lantshav
syðra
Veðurlagið
Sinterkla
Oyggjarnar
Sýria
Ac
Bang
Cor
Den
Fa
Fót
Festiv
Jak
KÍ
Kamb
Lop
Mu
Mer
Mun
Ment
NA
National
Oyr
Sol
Sverri
Tri
Ting
Toft
VB
Wight
búgv
eingi
funnu
gand
gingið
gávur
hom
hyl
hyggja
kil
kollvelting
kinver
lak
nør
plag
ræðið
sal
sung
vi
vanda
vigar
##eil
##ral
##rast
##jerg
##so
##tingin
##utur
##luni
##litið
##vøll
##valdur
##finn
##mint
##ænast
##cy
##ítt
##urch
##støði
##ery
##eraði
##ilip
##enska
##unnum
##amaðurin
avl
viðkomandi
##orm
##isi
##ision
franskt
##itari
##ater
##atal
sev
##álvur
##oma
##aria
##nas
tílík
##sliðið
árliga
##ista
##lagdur
brek
##ese
síður
##ansi
##ansas
flutning
fyrire
##unnur
##unnilin
##ygdar
##ættini
heimsk
nýtir
##ondin
leiv
Star
Stud
##vard
##virð
##bering
málaði
##ksik
##etti
hernað
Einar
##skapurin
Frank
skipið
skipini
talv
##eðal
vakstrar
leikstjór
##shire
tekna
besti
Troya
nevndini
lagið
##framsý
góðan
##spr
tónleiki
høvuðsbýur
høvuðsleiklut
kirkjur
##bóltur
##afrika
Brú
bólki
##samband
amt
##grund
Arm
søgn
søgur
##manni
draga
hugsa
##attle
loysa
broyting
kendu
Fyrsti
stuttsøgur
sjúkur
regnar
føroyskir
##prógv
orðinum
##ongdin
##ankta
##burg
##stovuni
enska
kallaður
boðaði
hálvan
atkvøðum
framleiðir
mangt
tingið
fjallalendi
##evnið
##unty
fyritøkur
Suðuroyar
leyv
Kirkju
eyga
flestar
næsta
Nýggja
minkað
Paul
Ongin
vøkstur
##ásad
útgávan
kristnu
indiánar
Sjálvstýri
framleidd
ætlanin
Løgtingið
##arafturímóti
gransking
Klaksvíkar
##mbol
stytting
Eurov
Peter
##drátt
##ýpros
##vági
lyft
Niklas
Alex
Islands
liðugur
lægri
róptur
skjótari
Remus
##uksu
ófrið
steypakapp
Francis
ferkilometrar
virðislønir
beinanvegin
Ætlan
##heiðursmerki
ævint
Bir
Car
Cent
Danska
En
Eff
Fíggjar
Ham
Jensen
Ko
Kýpros
Liðið
Mest
Minn
Marin
Nakað
North
Od
Open
Sankta
Vil
bend
dálk
fir
fun
farte
hald
hungur
kel
kalt
krop
las
mar
mynt
per
popp
rógv
ræði
sa
slá
sub
sunnar
tøl
tjú
va
vandi
vuksu
ístaðin
ósem
##eik
##rup
##sang
##sfr
##til
##odi
##kon
##din
##ugg
##lingum
##vinum
##hang
##hard
##høll
##ýð
##ýur
##fle
##fiskur
##maðurin
##áta
##ánni
##bær
##bjóð
##bli
##pan
##punkt
##úra
##wood
##år
##ilsi
##ington
##ami
stýra
stóri
##lem
avg
avrætt
##avtal
##isma
ums
##oyvi
skað
skild
##astýri
##omb
##itti
##ratt
havnar
havna
##elj
samr
útveg
uppgáv
komp
##slið
##undunum
##lagnum
brá
brast
##esen
##íkis
album
landa
landnyrðing
eftirkom
##leikarnar
1300
##ættin
spyr
##ovak
##utir
millió
Stand
Heini
fáir
fáast
bløð
##ognar
##ýrum
##adem
herinum
metal
##ider
##flóð
vanligum
talu
##udag
stovnar
##øtum
sigast
parta
ymiskir
pró
prestur
handverk
##uba
lagdar
##ygging
##varpið
høgru
húsið
Champ
Church
kirkjug
norrø
latnar
hvítar
Gramm
##ferðir
kvinnan
førir
prof
støðugt
ongar
snú
plátur
##frøðiliga
ovast
norðuri
vaksið
vaksandi
stigi
atkvøða
##egión
##ríki
ráðhar
Stórir
lutstat
1958
rópa
metti
skaldsøgur
Mary
sýslum
meginparturin
##evnan
ídnaðar
forsetanum
##hael
fløgur
landbúnaðinum
ræður
Strand
fátæ
rokna
beina
Smyr
ljóðføri
mistu
viðurskiftum
vøkstri
Mohr
minnil
torført
húski
opið
reytt
útlendskum
vandam
borið
elektron
aðalf
konsertir
Verður
visti
vistu
Madeira
sekund
Grønlandi
Niels
Niðurlondum
átrúnað
skúlan
studenta
Thomas
fyriskipað
##amerika
Joseph
##alondunum
David
boða
regluliga
pørtum
landsdystir
gjalda
mamman
regnskóg
posit
kvøldið
kosin
##óttafólk
sóknar
Hektor
universitet
tilvild
Sinterklaas
Bro
Bát
Eir
Eina
Forn
Gull
Gásad
Harvið
Irak
Kur
Kann
Kend
Kall
Mars
May
Mesta
Part
Ron
Su
Sing
Sám
Símun
TB
Tol
Uk
Var
We
ang
bjóða
bundin
biskup
demokrat
eing
eggj
fæ
fegin
gáv
gitin
ha
hoy
hár
kul
mundið
null
nøgd
natúr
ox
odd
portugis
sorg
tind
tingi
vári
vide
Ás
ónd
øg
økt
##ðal
##ræ
##rav
##runa
##je
##játt
##sig
##sul
##yni
##ter
##ox
##oug
##ker
##dre
##litt
##hey
##hel
##fisk
##mon
##ben
##bøkur
##ph
##pall
##úlu
ert
##sker
##skyns
##ric
##anne
##amanna
stj
##inia
avmynd
##lah
vert
umráð
frost
##llur
##etri
mennin
##evropa
##endu
útav
útnyrðing
árstíð
##naðin
##olk
alskyns
gjørdir
1100
býi
nógvastaðni
##ove
##utan
##ase
heimsb
##áttúr
##óðri
fort
tannlæk
arkit
nevnir
ferðini
ferðina
málað
##apping
svik
smátt
metir
yms
##fly
arbeiðspláss
sjálva
##ardaga
leikti
##trø
teknað
gamlar
##ómur
##arinnar
sangirnir
nevndu
##málum
mannafar
egið
##marknaðinum
limirnir
##árunum
filmin
byrjan
søguna
##iligur
mais
starvi
stovnaðu
undant
ætlaði
greinum
valinum
fyrstuni
nærindi
føroyskari
##sríki
slep
andlit
borgarar
##skipanini
marknaðar
hægstu
##laða
skaldsøgu
farma
mótstøðu
staturin
ídnaðarv
##ambore
##alekt
aftanfyri
bátin
leypa
sendir
sjónleikir
missa
eyka
ítróttar
##enjari
##sjónd
høvdinum
menniskja
##slimur
##slimir
blaðnum
fólkaatkv
minkaði
bretska
stavar
Turn
##bólkurin
oyðil
finnur
Annars
dugir
kroppin
Russlandi
Berg
Kvív
keypt
umhvørvið
avgjørdi
Europ
Serliga
bókmentum
##skorpuni
íslendska
lækna
Reykj
klassisku
tilfarið
University
##lades
##oyggjarnar
fuglur
jødi
Aðrir
kláraði
kjarnork
Ferðav
loysing
kunngjørdi
Onk
framhaldandi
røkka
hjúna
oyðimørk
serstakliga
ravmagn
kaffi
Pápi
embætis
gevast
Askani
##anggeil
Úrslitið
nærindis
00
August
Ben
Barn
Bár
CI
Di
Fýra
Fám
Ga
Gir
Gom
Gey
Gra
Hag
Het
Hildið
Jú
Jarn
Kyr
Koll
Lav
Los
Mid
Maðurin
Mikk
Ni
Nakr
Ov
Osl
Plan
Port
Ring
Red
Región
Sara
Søl
Somu
Sagt
Svín
Tel
Tek
bass
datt
døtur
gest
gjá
gittar
herð
hip
hita
hanga
hirð
higar
harafturat
jar
koll
lig
langgeil
mil
mundi
meistaraheitið
meðal
ræð
sendur
tit
tald
torg
walis
ólóg
##raði
##nor
##nýt
##kst
##døm
##uf
##lurnar
##vold
##hisk
##ýggj
##fer
##bø
##ban
##bjarg
##TA
##ano
##anskum
##ere
##aleið
##riftir
het
##ams
stong
stætt
stíl
viði
viðgera
##lak
##ory
##ava
verjir
##oynd
##ikur
##ikavist
##astov
##akrar
1955
1968
##íðini
havh
havbot
##endum
útsjónd
##sløgum
##økstur
elsti
bring
breyð
bryggj
##esp
##naðum
trong
##olt
##leikarar
##øvnini
flot
##red
spja
nógvu
innandura
heimi
heimad
##usp
legg
Stjór
tíðirnar
føroyingum
arv
oyggja
kannað
blíva
##orðini
##feingi
sjónar
##brún
##nter
metur
##oki
##okia
##flot
arbeiðinum
týsk
bygdunum
bygdirnar
endaðu
Fríð
vant
vanlukk
leiktir
##tøkur
##shar
##ágr
heili
##støðunum
Samuel
Sameindu
rættin
##siat
valdømi
livað
lagdir
merkis
tónleikarar
nýtti
##anadi
húsar
høvuðsstaðurin
Bryn
Brandur
##ætið
ríkið
Grund
útgerð
ávikavist
listar
byrjaðu
søgnini
##arlið
hildnir
læru
skjótast
landslagið
loyv
greiddi
stuttsøg
fluttur
##haldinum
##formaður
##evndini
grundað
##aktor
##ímur
##ímillum
Seinna
##skipanir
heiðursm
hálvfinal
atkvø
bøta
síðum
1957
stovnurin
hjálpti
lesandi
søguliga
##festiv
statunum
forseta
##sneyð
plant
flokki
einstaka
leyg
donsk
ferðafólki
##bergs
hoyrdi
breiður
menniskj
vestanfyri
blaðið
##ígnum
stýrt
hálend
láglend
eggini
vøksturin
##bólkar
anim
prestag
Løgtinginum
griksku
heimaftur
myndugleikarnir
royndu
Vestmanna
granskarar
Útvarp
endamálið
Europe
Tjóðveldi
Størsta
elektri
Janus
Grikkaland
faðirin
vøtn
maskinur
##sókn
Grønland
tapti
meiriluta
Latinos
##alagnum
Simon
ungdóms
einsamallur
móðurmál
tunnilin
Gamla
avmarkað
undirvísing
Charles
Sjónvarp
##síðuni
stjørnu
skemt
almennum
Niðanfyri
indo
##olitikk
Sangurin
Foot
Michael
útflutt
fjórðingar
hátíðarh
Unit
##hjálp
Økið
áarbakk
##untry
hveiti
Hattarvík
íblástur
Jakob
Sjálvstýris
Effo
fartelefon
milliónum
Champion
Churchill
Reykjavík
Askanios
Nakrir
Blá
Dímun
Ex
Egg
East
Go
Gab
Gjøgnum
Jer
Jon
Kristi
Lin
Lam
Lang
Leir
Lib
No
Os
Oman
Portug
Qu
Róm
Rín
Róðrar
Sel
Sund
Savnið
Tw
Vel
Virk
brasil
bóndi
dan
dølunum
fund
garðar
him
hop
imp
jazz
kok
kines
lað
mín
njó
om
osfr
prikk
slig
synd
sagn
sótu
súg
tig
vátt
viga
Óli
ávar
ísk
ólík
##eig
##eks
##ring
##ræði
##nav
##nes
##javn
##sæð
##ydd
##tím
##ønt
##ke
##dúk
##gir
##lo
##hon
##hamm
##fa
##feløgum
##monnunum
##áir
##inni
##arir
##arbeiði
##unni
##onom
##amma
stevnuni
##dium
summir
verpur
umsett
telefon
##ndar
##ikari
fyrimun
##atil
##atni
##akið
##álum
##álaráðið
1945
##raft
##eldi
##arafelag
##jørnu
##ulos
##slurnar
##slønir
##lagi
brei
trygd
##ivt
##ivnir
aliv
eftirl
gjørligt
##leikur
##leikunum
Føroyska
Føroyskt
spá
spar
##irki
##utron
##asmið
##asøvn
##ennis
nýggir
tíðindi
føroyam
oyði
dagurin
dagliga
krøv
##fólkinum
kvæði
##ads
berjast
##skapinum
settar
##jarnar
##jarðar
Frí
sjálvljóð
mestsum
serlig
##ude
##træ
german
Skúla
tekn
##skipari
handlar
##cht
mála
##abb
hinvegin
virkið
virksemið
langan
nýttir
bókum
høgar
roynir
bólkur
vatnflóð
Arn
evnið
lítlan
hvíta
ávíst
vegsúkk
hildnar
##iligar
##iligum
fiskur
frímerki
##ukle
stjórnina
stuttum
Herm
norðaru
##antin
##antil
##frøðingurin
##mentir
Norðurkorea
føtur
vinnarin
##flokkin
landsliðið
1946
triðingar
Evrope
síðsta
1959
háslætt
fjallar
##yrgi
jarðskjálv
meginlandinum
litf
lán
##agarður
holt
einstøkum
reiður
breiða
##alistiska
Stríð
https
flakk
Trónda
##herd
eyðkent
3000
Eysturríki
bretsku
##óðrarb
##sdóttir
##depil
megnaði
Ólavsøk
húð
##ddust
fátækrad
eystanfyri
almennu
Paris
myndugleikar
heysti
dómstól
guvern
##stýrinum
slíkum
Húsini
lokal
løgreglum
luftini
sjógvi
virðislønina
jarnbreytir
syngur
##ologi
brekk
dialekt
Aðrar
høpi
##edia
uppkallaður
Thomsen
prýð
Glob
rundanum
greiðir
Jean
noktaði
Holm
kopar
klokkan
##eistarast
grivin
restina
trúarjátt
yvirgangs
Søgnin
Kanada
##iðurskiftini
Richard
avgerandi
Akillevs
Højgaard
fyrireik
Eurovision
Ætlanin
farmaskip
Somuleiðis
ligið
Football
Portugal
Bla
Bat
Byg
Ca
EB
Eng
Gold
Hál
It
Il
Keld
Kili
Line
My
Mum
Num
Ok
Pan
Regin
Rio
Rógvi
Sal
Svar
Und
Uni
Væl
Verk
Wil
app
biðja
boga
ch
fanga
got
hot
harafturímóti
ja
keld
kenda
kendi
káp
keldur
li
laks
løtu
meistara
neg
nála
páv
ru
rí
røkt
systir
tul
vág
vetur
vendir
ás
áar
áleið
ístíð
ísrael
óg
óvan
##eles
##ius
##ðard
##niliga
##jarar
##jurnar
##óða
##sligum
##yv
##den
##góð
##garðar
##vok
##ýta
##ýsa
##fin
##ænastu
##col
##bu
##bama
##bjørg
##pir
##pherd
##zen
##SF
##ES
##anst
##umenn
##ilia
##aðan
##skandi
##inium
avdúk
##lass
tilver
tilfari
##ora
##ormur
##aver
umfar
##oyg
##oynna
teg
##vurnar
##óli
##andin
##ander
##itu
##itz
##ppi
fyribyrg
1933
1965
1910
##øguni
##agerð
##rahav
##nie
mentist
##endar
##estis
samveldi
##ssend
##iskip
útv
fólkunum
##slív
ársins
##økan
bráð
trí
trum
troyggj
##úgvu
alf
##yrki
##leikir
##rogen
framgongd
2500
fleyg
Føroyingar
býirnir
fekst
##utar
##utum
##asia
heimurin
##eind
##ondunum
Stov
##øldi
aráb
krók
samanhang
seinasti
skuld
##breið
##bræv
##ýrið
##ado
spælif
skrivstov
endaliga
##jarga
##øllum
vakur
##úrurin
serligt
##tøka
##øtan
##shand
heilag
##støðan
gamlari
Nordi
valdinum
lagað
mánaði
merkja
navnorð
virkis
##setingar
tónleikin
bóka
unga
húsunum
høvuðsstaðin
fyrru
Legg
ríkt
leiðslu
lítlum
Greg
hækk
søgan
Daniel
vega
líknandi
hugt
brúkast
smáir
innanfyri
##oder
onga
##ellum
Norðurat
gjøgnumbrot
matstov
yrkti
1949
##erne
stigum
álit
dystirnir
atkvøðunum
skiftandi
##aligar
1956
hægsti
fjøllum
fjallinum
Foreldur
Margr
vanligari
kjak
týdningarmestu
deyðu
Sea
Guðr
javnt
sendu
plássið
rætta
súkklukapp
slagi
1939
skúlar
oyðile
koyrdur
rithøvundar
París
Egyp
reint
festi
býarpart
styttri
Bretland
Fjøl
neyta
trøum
Guds
botn
krepp
varðveita
atkvøðurnar
Barna
vøtnum
Dagurin
russiska
fongsl
Kortini
student
svenska
Polit
Henry
##borið
búseting
Prix
Eyðun
grasi
Noregs
yrkisleið
Delhi
forsætisráðharri
klæðir
Shepherd
gongust
Øssurson
yvirliv
stillaði
Mykines
umvæl
Skotlandi
Bjarni
Írlandi
Lógin
dýpi
sunnara
sjóvarmál
evangeli
Televarpið
Connery
##leggjandi
tinglimir
sipar
Norðurlandahús
Johannesen
Svimji
Fótbólt
NATO
útvega
lutstatinum
umráðandi
ymsastaðni
##ladesj
Onkuntíð
Bárður
Egyptal
Bri
Bol
Báð
Besta
Dub
Dán
Ell
Ever
Fort
Gi
Got
Garð
Hør
Haw
Ku
Kom
Kenn
Kals
Kross
Lag
Merk
Miss
Náttúr
Ork
Rú
Reið
Sen
Síð
Tj
Tyr
UN
Whit
WTO
Yrk
bj
band
biður
bøkurnar
fen
farnir
fostur
gag
gang
gist
gro
genta
høgu
hongur
int
kasta
krit
kálk
mon
mær
mørk
pal
pál
para
pakk
rím
rinda
sing
siður
savnar
syrg
ter
tølini
vá
vón
År
Ím
ítr
ós
øv
##ez
##eit
##egg
##sø
##som
##sdag
##ool
##odd
##kal
##dam
##dini
##dliga
##dømi
##uck
##gum
##gul
##gos
##ler
##lív
##loys
##hy
##ht
##hól
##hund
##hus
##hval
##fla
##fug
##murin
##meistari
##áti
##æddur
##blað
##plá
##ífrá
##PE
##anesi
##iðin
##stin
##star
##sten
##iland
##ilendi
atgongd
##alia
##aligur
##skriftir
heita
##amo
stre
stív
avstað
viðmerk
##ors
##orni
##orado
##isera
umr
umrø
ska
skera
fronsku
##ikla
##imb
##imenn
##imenni
fyribrigdi
##akunn
##agørðum
##evi
##evna
##ongin
##ongurin
samferð
útnevnd
hjarta
##sloys
##angi
##angt
##ugleikarnir
hvarv
##naða
tráð
træla
alin
landnám
##duc
táverandi
##rodi
##unnurin
##ygen
##eiri
##uts
innlit
innspæl
##usa
grøv
tíðum
##varð
forlagið
##ølu
føroyinga
ferðslu
ferðamann
ferðamanna
málsøk
##ótandi
##ningi
##kson
blind
blues
##fólki
veð
fjað
fjala
##adømi
##øminum
týska
##jarum
Fróðskapars
skipi
búleik
vakra
leikunum
strand
Skóg
sløgum
tekningar
teknaði
##støðini
rættar
rættis
miðjuni
handli
handilin
valdshar
sangunum
Trump
nevndin
##abet
Summ
liðum
##seting
tónleikur
felagsins
limunum
limalondini
##dell
økini
norska
norskum
norsku
latí
søgum
##arbók
dráp
##iligu
skjóta
myndum
myndlist
Sostatt
brúkarar
næstb
næststørsta
kendasta
valevni
sjúkum
reglur
snl
##ellur
1906
1903
1904
##gerðin
lógu
lógin
matur
##øldum
verkum
tjóðir
amerikanarar
amerikonsku
svimur
ovastu
Atlan
mentanin
ættarlið
brúktu
##søgan
Anders
Androm
marknaðinum
útbúgvingar
##essa
##essu
Fyritøkan
lutvíst
túsundtals
rávør
hjálpir
hátíðar
stuðlaði
skaldskapi
##fjall
Forset
leiklutir
ídnaðinum
sambandið
1918
týdningarmikið
Høvuð
##onsert
##snig
stríðið
##reglan
flogfør
holur
reiðrinum
hoyrt
noyddir
frammanfyri
minkar
stýrdi
Jackson
Sandvík
lágt
fevndi
Olympisku
goyma
koyrdi
ansa
##jaldi
ætlanir
staðfesta
Mez
pápanum
guitar
kravdi
Kvinn
sáttmálin
County
##eiðursløn
spurdi
sjógvin
formliga
Eineiasi
bardag
varðveit
Hvussu
##ollveltingin
bátur
ferðavinnu
templið
jødar
halgid
revsing
##legging
greiða
náddi
byrgingar
III
bólt
uppreistur
##fuglur
samdøgur
Argja
mamma
rýma
heimsmet
Aftan
kurv
Hotel
samráðingar
Felagsskap
Froð
búkinum
##skúlan
Sambandsflokkurin
lisið
Alaska
morgunin
óheft
dripið
biograf
Sovjetsamveldinum
vinstru
elvdi
Records
Studenta
sláa
spyrja
Grammy
Ukra
menninir
Kvívík
Ferðavinnan
Kyrrahav
Oslo
##hisky
Brynhild
Leirvík
Róðrarfelag
##tímans
breidd
Dánjal
Ali
Aqu
Býr
Blu
Bay
Bakteri
Bogi
Comp
EF
Fimm
Filip
Gund
Hum
Hov
High
Jen
Kir
Kam
Kle
Ley
Litt
Lind
Mont
Ny
Nakrar
Old
Pl
Run
Rest
Rep
Sw
Sun
Sit
Slík
Vol
Varð
Walt
Wash
bleik
bíða
bøgan
dýra
dupul
fal
fingin
gá
graf
is
iv
jag
kam
kúg
kanadi
la
mag
mæl
morg
mæt
meist
riv
ridd
rekur
súr
ugg
vall
yt
Ídnað
át
áirnar
íla
íbú
##eo
##ior
##ae
##rina
##rás
##nasta
##jav
##óni
##tjóða
##ønd
##ønum
##ko
##kin
##king
##dyst
##gan
##geva
##lingin
##hm
##hitin
##fara
##fals
##filmar
##fjørð
##morð
##myll
##áin
##ánna
##æs
##ædi
##cus
##bingar
##bia
##bils
##pu
##pri
##way
##que
##umhvør
##erar
ogn
##ilt
##aðið
eri
##enia
##unta
atvold
##skaði
##rie
##onia
##ørum
##annu
##annel
##amein
##amos
viðger
viðhvørt
varir
##igi
##ign
##ise
##órið
skall
eindir
##iks
##akarar
##akirkj
##omat
1951
1944
##ago
##agre
##eys
##rah
##eland
##jóhví
##evandi
samsvar
##ssam
útd
útb
uppat
upphit
##istiska
1890
##ugur
bró
brúgv
breyt
##esia
tre
##olar
alheim
landsp
##øðina
eftirspur
##ement
##tab
flótandi
##redi
stórari
##ættindi
spanska
##ipláss
##marnar
##marnir
feitt
##utíð
heimastýri
nýggi
sjór
##áttmála
##otar
forð
ferðaðist
nútímans
dagfør
hvørjari
málunum
málføri
krún
krydd
vekt
##bret
##ettan
##aden
hersett
arbeiðsm
skrivaðu
endanum
Harri
Harra
Harry
sjálvir
##ardo
búnast
##tíðin
##treyt
Skúl
##arson
##arnu
##skipað
##lipp
handað
##sveg
Triðja
mát
máti
burtursæð
bólkum
vatnskorpuni
Hesa
flokkarnir
##ollin
##arlund
##lendska
drey
drúgv
ført
førdu
South
Soci
##orninum
landsynning
smáu
undank
støðuna
valskeið
snig
norðari
plát
føroyski
færri
##elli
##ello
##gerðir
Norðurlondum
møguleiki
vinir
##flokkar
amerikanski
amerikanskur
borgarum
1947
1943
fólkatelj
Tóra
Tórsvøll
##vegur
triði
drepur
##valeyst
tíðarrit
##verkinum
Nógvar
boðum
fremstu
síðst
síðuna
1952
telja
mótvegis
Tvær
olja
flytur
1917
tíðarskeiði
gudar
týdningarmesta
sterkur
##oria
bátinum
##eløgini
fyritøkuna
betra
Uppi
eygu
##ýsingar
ítróttarh
Thor
arbeiddu
Real
noydd
roknaður
familjan
familjuni
flýddu
1938
##havinum
fevna
slav
Marie
ljósari
##oyggjunum
útgávu
bóndin
almenninginum
harðliga
Blóm
veiði
festiv
umtóktu
elektr
bjargingar
bjargaði
Stórabret
botul
fótbóltsdeildini
sosial
inntøku
tørvar
blómur
goymt
Innan
fongsul
sálar
##ervativ
##ippi
grasfl
Tíðliga
einsamøll
Fólkaflokkurin
Indones
mammu
Ráðið
leiri
uppreistrar
fjølmiðlar
Oyggjaleikum
Oyggjaleikunum
landsdyst
Awards
Lítla
sigldu
Angeles
tiknir
tøkni
frágreiðing
Fugloy
einkult
##atíðini
offur
Green
grikkar
venja
Fuglafirði
vitjaði
Turkalandi
Hoydølum
Nólsoy
Factor
ummæli
høvuðsstaðnum
limaskap
##tinental
frælsis
høvuðssæti
Jørðin
Wikip
##mouth
tilburðir
sunnudag
klædna
Bangladesj
##virðisløn
talvuni
Francisco
ævintýr
oxygen
##ough
##amboree
hjúnaband
havbotninum
heiðursmerk
atkvøddu
leygardag
United
Eggini
flakkfólk
##andinav
spælifilm
Mezenti
Ukraina
Washington
Ba
Bí
Ban
Bab
Bah
Bank
Brot
Boys
Club
DM
Dal
Fjór
Faðir
Gen
Gand
Gener
Hj
Hom
Hjál
Hads
Ir
Juni
Jers
Kari
Kongur
Lík
Lars
Love
Mi
Mitt
Mús
Mett
Nær
Ox
Plá
Rh
Ros
Sev
Spr
To
Ton
Ur
Vig
Yng
aut
bas
bøn
barnar
bundið
dal
døg
damp
dalar
danskur
gjógv
givnar
haga
itu
jøvnum
kamp
lokk
mus
mýr
møt
møtt
plas
palli
ro
rið
rek
sætt
søkt
sæddur
tank
takast
von
vul
vødd
vár
Ør
ástøði
ótrú
##eus
##ix
##ios
##iation
##ðir
##asløg
##rari
##raður
##ykki
##tik
##øti
##krepp
##uc
##usl
##lingur
##váp
##vinnu
##hálv
##hædd
##ýtur
##ýtir
##fast
##fald
##firði
##ming
##møgu
##æða
##bak
##bera
##bab
##børn
##pers
##ínum
##zi
##wart
##EA
##BT
##ará
##stand
##alm
##skjó
##skole
##rip
##amørk
staði
stilla
strekk
##let
avstral
##igator
tilflyt
##orr
##orin
##avið
##avøll
vers
verka
##isla
umtal
umstøðunum
tev
einastu
2021
frak
fryst
##iki
##ikass
##ato
##atinum
setir
setast
##omið
1954
1936
##øga
##agang
##evnini
##araskúla
##ester
útl
útsý
útbreið
uppvaksin
frásøg
tíman
##istur
bróta
troy
trón
##ive
##ivil
##ivað
##olis
##olju
landspart
##øðan
##emi
##embur
##leikarin
##rep
2400
2700
##ættur
##util
##asi
nýtast
##avninum
##allir
gró
gróðr
Starv
Stundum
sært
forng
tannár
arktiska
fáu
altso
##ningina
kríggi
bløðum
##fek
##ettir
##adr
##addur
##adali
smíða
##ersha
##jarn
sjálvi
sjálvari
sjálvmorð
skipum
leika
strey
longst
##tøkum
##trýst
##førari
heilum
##støðin
Samfelagið
prædi
sangskrivari
##svirksemi
Trøll
Tríggir
##ningarnar
##strondina
Sumbiar
mannalív
merking
##yggur
langir
egypt
##aff
##immal
##ektur
økja
##samur
##rikur
Arktiska
filmur
byrjað
##ylvan
søga
Danmarks
##sbók
lærusv
hjáljóð
mynda
##amálum
hugtak
##akku
næststørsti
broytast
Landsl
ætlaðu
valrætt
sjúka
sjúkan
hópin
nærm
##ellow
##assar
grundlagdur
grundleggjandi
kongs
kongar
orðum
##býurin
slept
verkið
sonurin
vink
vinnum
vindur
politisk
politiskum
##bess
1942
kallaðist
ógvus
ættað
ættarbólk
norðureftir
ljósar
álvara
atkvøð
Fløgan
barninum
Hinvegin
skapað
Havnin
meginlandið
##evnur
##evnunum
vanligu
Tískil
litir
onkrum
skógin
skógir
Høvd
##haug
Seattle
##lingurin
fullveldi
hendingar
vikuna
Debess
Árna
flestum
hvøss
rúmar
4000
hittlist
vestureftir
akfør
Nýggj
Sven
orsøkum
eyðkennir
siðbund
fastur
klaver
Eysturoy
skúlum
##flutningurin
landsstýrismann
bretar
stavrað
Olymp
grønlend
hæddar
Turid
útgávuna
Afrodi
##gongdin
dugdu
húsk
húðini
fátækastu
eystara
Løgtingi
grikskum
Bløðini
bakgrund
lendinum
útvarpinum
Meksik
gloy
reyd
reyða
framførdi
afro
felagsskapur
felagsskapurin
Laur
evropeiskum
endamáls
Hvalvík
Hvalbiar
seyða
álopið
Faro
løgreglan
bronsuheiðursmerki
borin
##ydrogen
Leikirnir
einstakling
krígs
Hvann
vøtnini
seyðir
Kollaf
Universitet
Oftast
røddir
##sóknir
##framleiðslu
djúpum
kostaði
námsv
ritstjór
Kristin
Rasmus
skúlag
samgongu
breitt
uppskotið
búskaparliga
Kringvarpinum
stýrisskipan
fleirtal
kjarnorku
lønt
kunngjørt
fíggind
krabbamein
Davis
semjast
stórbýar
grava
forsætisráðharrin
Ráðnum
uttanum
hjúnar
##shúsið
Liber
morr
Klæ
grønum
vígd
eydnast
tiknar
tropiskt
blettum
marknaðin
kaldasta
møtti
vissu
mótmælis
senior
smíðaði
lívsleið
løgtingsvalið
Livar
tilnevndur
Afturat
høgga
róðu
##skúli
trummur
Hoydal
Javnaðarflokkinum
Liturin
bygninginum
dóttur
almannakunn
óvist
útsynning
##eyðkenni
svimjihyl
Emil
trapp
Lenin
Virginia
viol
##sprógv
høvuðsleiklutin
firvald
hungursneyð
Smyril
positiv
heimsbardaga
fortel
slepst
##brúnur
stuttsøgus
ískoy
fátækradømi
Golden
Numit
Norðuratlantshav
Norðurlandahúsinum
##hundrað
Felagsskapurin
Republ
Indonesia
Bíbli
Hadsund
Jersey
##ylvania
06
320
AB
Aust
Aðal
Asiat
Bon
Bor
Bak
Bas
Bus
Bok
Belg
Cr
Cat
Cas
Dur
Emm
Fu
Fá
Fin
Fir
Foss
Fame
Gil
Gat
Gos
Gent
Hank
Jarð
Jord
Kos
Ly
Mak
Múla
Mørk
MPE
Nol
Obama
Pen
Pow
Patur
Ra
Ry
Rand
Rod
Ska
Sver
Syd
Søgan
TV
Ul
Vä
Vár
Vjet
War
Women
bri
bog
bidd
binda
bóru
bratt
del
dok
dentur
etið
fýr
farnar
fíggj
gold
gjald
gener
hal
jøk
kett
køm
lom
mel
mús
meldur
marg
monnunum
múgvandi
nei
ovar
pis
pok
púra
ris
rull
rock
røttu
snar
tón
takt
tólv
we
whisky
Úlv
áb
áum
áset
ágang
ór
øl
##ebo
##rís
##nik
##ness
##jus
##jaðar
##sið
##sulin
##tra
##tust
##oul
##ød
##kum
##klub
##kópur
##kansas
##dal
##dís
##dad
##dley
##gið
##givin
##larnar
##vá
##xas
##fu
##ftt
##festur
##mát
##meistara
##átur
##bind
##bog
##ímar
##ítrótt
##ary
##arinum
##arbeið
##anarum
##ttur
##ttir
##unna
##alóg
##rich
##øre
stey
stakk
studio
##lement
summ
avrik
viðg
tilk
tilboð
##avirðisløn
umvegis
##oyð
##oyrar
##ftrat
skinn
skák
skutu
skugg
##ital
##ikapp
##ima
##imur
##imjing
##ppar
fyrimynd
##atin
1927
1929
##agnar
##agrein
##æru
##elle
##eljandi
##ongis
##araftrat
##ssa
##ssjúk
útkom
##jørður
hjún
harða
##slist
##unds
##angari
##istarnir
1894
eldur
brenn
##naðist
trup
trygdar
landamørk
##ema
##rost
framd
fyril
##rea
##reinar
2300
býtast
2100
2200
##ovu
fellur
##aspæl
##innandi
##einar
##artal
Stre
##ddy
##frið
##fræl
##oto
undirtøku
særd
fortal
forstøðum
forkvinna
##øllak
nevið
dagur
bløðunum
##fell
sjóg
##fólkini
veik
veðr
svørð
vitjandi
##ette
herlið
##ican
spældur
##ømið
arbeiðis
arbeiðsfólk
##jórum
Frem
sjálvstýr
sjálvbjarg
minnir
minstu
skipanin
##øllini
leikum
leikir
leikirnir
##øtunum
Umboð
Skald
Skriv
##ønu
lívskor
siglir
slopp
##ónleiki
staðni
Norska
rættur
##skipum
##arðinum
miðøld
##chen
sangur
##svík
Trý
Tríggjar
Trongis
##ube
##ubyg
##abeth
virkað
detta
##markið
Channel
##afor
##staðar
##menninar
Lee
leiðum
leiðandi
##æðis
##grá
latast
Arkansas
flokkunum
Alla
listi
søgd
##arbl
##mannin
##arloyvi
mask
##unga
brúdley
Suðurafrika
Suðuramerika
børnunum
myndpr
##húsini
frítíð
##ráðið
undur
ongum
region
##komu
hóttan
fært
##obi
Sjey
1902
1901
##akter
matgerð
##búna
Theod
sonin
Seinasta
føri
føstu
fólkatalinum
ensku
##úsundtals
Evrop
víðkað
Vágum
giftust
ljóst
ljósum
brúktar
markinum
fótbóltsland
Flo
síðuni
##agnet
framleiðari
lutum
sjónvarpi
hægst
##bai
Elis
háskúlin
tinginum
Jóans
skapt
Ford
##rættindi
jarðn
tosaði
tosaðu
Team
Texas
ídnaði
ídnaður
1916
liturin
skógi
skógar
tíðarskeiðinum
týdningarmesti
eyðsý
eldgos
ávirkað
Guam
plantum
fyritøkum
fíggjarkrepp
##aráðharrin
sjónleikara
landbúnaði
Norðoy
eygleið
misey
løgtingið
persónliga
persónligar
hoyrdu
breiðum
##sfilm
endurný
vesturstrondini
steinar
flat
##sitet
Sveinur
beiti
heitum
heitari
klárar
siðir
býttur
##mæli
Beini
Sandoy
Svøríkis
skúlin
broyttist
Vanligt
##garði
røðum
vøkru
minnast
útgávuni
kristin
ávísar
ávísan
##ufólkið
Sjúrð
kroppurin
fátækra
Ungarn
staðfestir
granskingar
Altjóða
sáttmálanum
umhvørvi
fimta
Saudi
eysturstrondini
sást
hinumegin
Fjallið
løgregluni
neyst
skjøl
samanset
##blo
##amanninum
trøini
venjingar
Jesu
##roknað
virðislønin
standmynd
bankarnir
Madrid
vindeyg
##ídnaður
##ídnaðinum
mannafør
Universal
France
borðið
Andrea
##aii
kjøtið
Edvard
yrkingasavn
yrkingasavnið
neytini
veðurlags
genturnar
hópatali
Simbab
flogvøllin
Monmouth
lønar
Finnur
Listin
Vatnið
krabbad
mikro
veingjunum
fiskivinnu
Eiðis
røkkur
mammuni
##sformaður
##akastið
Handil
uttandura
súkklulið
fjøruni
stevnu
sokallaða
Argent
Lítið
fremmanda
heimasíðuni
Sosialurin
Uttanrík
##nýti
Jóhannesar
Kunoy
House
jarðarbrúk
Silvi
sovjet
eginleikar
sonevnda
Botni
Póllandi
grikkum
líðandi
##steini
trælir
uttanríkisráð
útflutningsvør
kvennk
Danske
fjørðin
søkja
styrkja
Hammersha
lýðveldi
Apoll
Vict
trívast
tænastur
Færøerne
FIFA
spakuliga
fiskiskapi
forsetaval
føðingardag
ynskti
fremmandum
Melodi
Sáttmálalondini
Vetrar
føstum
##útbúgving
leivdir
broytingum
havnabýur
samrøðu
kompon
brádliga
próv
video
Europa
jarni
Samuelsen
Jakobsen
Sjálvstýrisflokkurin
njóta
súgdjór
##hammed
Hermion
Bygningurin
Mumbai
hotell
Báðir
útnevndur
veðri
Andromakku
Blómurnar
Meksiko
almannakunngjør
MPEG
sjálvstýrandi
Simbabvi
Hammershaimb
Ag
Az
Ast
App
Bi
Cont
Demokrat
Enter
FA
Fall
Gal
Gor
Gro
Góð
Guðs
Gott
Grein
Hor
Hjør
Hill
Kø
Kap
Kanska
Kona
Kuba
Lü
Las
Lág
Lili
Lyng
Mü
Mara
Merkið
Nav
Nes
Nob
One
Pat
Penn
Post
Ragn
Rithøv
SI
Sis
Sál
Ses
Sigur
Sier
Sakar
Tit
Tra
Tónleik
Tib
Tjald
Trek
US
Vi
Vill
Vís
Vind
Vinnum
Virðisløn
Will
Wind
Yangt
ben
bíð
batt
bilin
bisp
bjørg
belg
bjarga
cand
der
dølum
danski
eyr
eggja
fú
feg
fasta
fatur
fulla
gla
gor
gitt
gyl
han
høl
hatt
iva
kú
kaka
kass
lik
limum
log
lung
løtt
mór
mast
malt
mosa
møtir
nik
nál
nukle
pa
ra
rev
sø
sinn
sáð
súl
sædd
tang
takk
tølum
vøll
væt
vunnin
áunum
átak
ótt
ótta
óreg
ómet
##epp
##ðast
##ren
##ram
##ret
##ringin
##ner
##neyt
##nøgd
##jun
##jev
##jord
##sil
##sing
##sól
##sfelag
##ye
##ywood
##tø
##tór
##oin
##olas
##ønn
##kor
##df
##degi
##dómar
##uferð
##løgd
##vinnan
##vinnuni
##hær
##hendi
##haldi
##heyg
##høllin
##fini
##fjar
##fíggj
##mý
##æðr
##bb
##bóndin
##bjerg
##po
##za
##wa
##ws
##CO
##OS
##ön
##BN
##anti
##iði
##still
##stre
##støða
##ero
##ening
##aling
##alondum
##skoti
##skvinna
##riks
heyggj
##anni
##ingja
##amu
##aman
##amest
stend
stinga
styrki
##leiv
avbyrg
viðhald
vari
vard
##last
##aveg
##aveld
verpa
##isv
##iserað
tem
teinar
##ftan
skord
skjal
skiftur
skurð
frætt
frystir
fronskum
##its
##ikar
##imar
##imørk
##gvar
##atar
##atum
##aton
##atom
##narum
seð
##álit
##omin
1931
##íðum
##llir
##agu
##raham
##elsi
##jónir
##endingar
##estir
sami
samtíð
samlaða
samfeløgum
útlá
útleg
hjól
uppdag
komnar
##slimum
##tiop
árat
##øka
##ingarnir
1870
bróður
##naðir
tryggj
##olina
##emen
flóttafólk
2600
##ætting
2900
2800
##aslag
nýtist
leitar
gróti
grýt
##ktir
Stu
Step
##ónin
##átturin
##frukt
##otin
Hell
mállær
kanning
##uðri
##ninginum
millumtjóða
sjómaður
samanlagt
##arvi
vekk
vegg
vitam
##brævið
orka
herj
smid
##iden
##idømi
##icill
##floks
vælferð
týsku
týskt
##iggi
endan
sjálvboð
skipaðu
##lukka
talent
vakt
alligator
leikt
leiktur
serligan
strál
##vørg
longum
longsta
løgini
##føring
Skj
Skop
Skarði
##ønur
lívsh
##fyrisit
##arsam
slóð
tekstir
parl
##støðir
##óma
staðarn
rættarmál
##lie
handlinum
valdar
##cher
sangum
Trans
live
mána
##abo
##abl
##eldrini
liði
liðin
liðkapp
manninum
burturi
##setingin
nýttu
høgra
høgtíð
kirkjub
vístu
royk
kling
##sama
Art
mongd
evnum
evnir
lítli
Grót
útgávur
Alf
Albert
listan
listamál
##arlendi
##arlív
vegurin
##sbygd
drama
drupu
líkið
##ámillum
kvinnunum
kommunan
landslag
hugskot
loyvir
broytist
niðast
greiv
veltur
hópur
km2
##prins
##frøðinginum
Sjúk
lógina
møgulig
munurin
politiskur
svimjarin
gulli
borgina
##leydnað
fólkatali
real
reisa
##skipanina
##ows
Johansen
triðingurin
innihald
hálva
fótbóltskapp
dystinum
oyggjaland
bøin
Amer
Amster
síðstu
Spar
lutfals
##útgávur
virðing
syðr
symbol
telv
stovninum
rás
róði
legst
bilum
bilarnir
Jóan
mótset
Marsh
knøtt
1919
onkran
týðing
náttúruna
##sløgini
sterkari
##rabba
##skúlar
plantan
deildir
holum
Sambia
upprunin
fylgdi
løgtinginum
ítróttarg
persónurin
reiðar
reiðrið
##gongu
orkuk
hittast
súkkla
vesturi
vesturlend
##ismuni
máttm
##metrar
##deildin
Svart
drigið
familjuna
silvuri
orsøkunum
sólini
týdningi
samfelags
stýrið
stýrinum
dýrum
upprunafólk
##evsing
##breytir
hæddum
koyrt
koyrir
skotið
ávísa
svimjist
svimjarar
finaluni
##rønt
Afrik
Annað
Ungarnir
bakið
koli
barnabók
glob
framføra
framført
høvuðsmál
Anti
slíkt
skorað
Akrab
dansa
##ashyr
endamáli
serstøk
##foni
frumsý
spurningar
neyvt
neyvan
borði
lækni
trøunum
##handilin
væleydnað
Prest
##bygt
##bygdar
steini
steggin
skeljar
##ociation
##arupp
Havið
Havgr
ferðavinnan
Abraham
##field
skipanini
haðan
lyng
foreldrum
foreldrunum
##smiðjur
bíligari
School
ryggfjøður
##feløgini
ríkisborg
Profess
kærleik
kærleika
rúsdre
taptu
skriftmál
Edward
Slovak
avgerðir
meiriluti
meirilutan
arbeiðsgev
Latín
Kringvarpi
Kringvarpið
Santa
móttak
Barbara
Priamos
Hugh
bókstavir
verksmiðjur
Eiði
miðbýin
Markus
sagnir
Íslands
play
undirvísingar
klæðum
fjølmiðlunum
opinbering
##fuglurin
Søren
##avirki
fólkaræði
sigldi
eydn
heimasíðuna
grivið
Play
tónleikabólkinum
evnafrøði
ISBN
mýrar
floyg
Pápin
eitrandi
##veðurlag
Heinesen
advok
fatan
knappliga
skeivt
framsýningar
Sonur
úttal
##sagnir
sermerkt
protein
hálsinum
stakríkinum
Ferða
Kaj
borgarakrígnum
Hammer
Juan
avleiðingar
Association
Syðrad
orkestrinum
gleði
íløgur
##hagi
lóggávu
Hollywood
Sunnan
radio
tuberk
spennandi
Loprans
laksi
plagdi
tílíkum
Minnis
funnir
Strandferð
fátækt
Party
Singap
Sámal
##helm
##benhavn
##flyting
kjarnorkuv
Midjord
heimadystir
Stjórnin
láglendinum
Champions
Lincol
laðað
liber
negativ
alfabet
Margret
Guðrun
studentsprógv
gongustjørn
Rúni
##sloysið
búleikast
Summastaðni
Atlantic
Bakterian
Jenis
Runavík
dupult
sjóræ
einkultst
Wikipedia
Fjórða
forngrik
afroamerik
Klæmint
Belgia
Patursson
Vjetnam
dokument
tilknýti
brúdleyp
Contest
København
Yangtze
##hendis
stendst
rúsdrekka
Lincoln
4x
Att
Ald
Bil
Bra
Byr
Bold
Bjørn
Baldur
Brim
Bisp
Blaðið
CD
Cal
Cap
Comm
Do
Dev
Dans
Dyst
Dia
Dóm
Dep
Dømi
Dansi
Dimmal
Elekt
Fim
Folk
Gall
Grik
Gyl
God
HB
Hit
Harv
IK
JO
Juli
Kyk
Lað
Lev
Leg
Læk
Mona
Meira
Nør
Nation
Oh
Ole
Odd
Olaf
Pia
Peng
Pippi
Ri
Ren
Rap
Ross
Radi
Sy
Sir
Saks
Sif
Sára
Tok
Ug
U19
Vald
Vib
Yellow
Zach
ag
bum
bla
bis
bat
bill
ball
bant
dur
degi
dúg
ei
eng
fur
fil
fik
ful
festa
farloyvi
gir
glu
ganda
glas
hul
hind
háv
hagt
hopp
hyggj
id
ivaleyst
kyr
kenn
len
lund
lop
loð
lurt
mal
mia
morð
med
makt
megi
myrka
melda
nakk
omm
rist
ras
ravn
rokk
rap
rikin
rott
si
som
søm
sýri
sivil
suðri
tak
tara
veld
Ítrótt
Úti
íroknað
óivað
##ela
##akki
##rur
##nest
##navnið
##nesi
##jøt
##óði
##sað
##søgum
##och
##kn
##koyr
##dningarm
##degnum
##ule
##gað
##gud
##luna
##laður
##læði
##vinn
##vart
##hj
##hos
##hoyr
##full
##fødd
##fyl
##fiskar
##me
##mu
##men
##minum
##mund
##mas
##mús
##mæla
##átta
##æm
##ces
##byr
##bod
##bundin
##blaðið
##pum
##pør
##ína
##íli
##win
##wick
##RA
##II
##arður
##artur
##any
##anám
##ummi
##stek
##alir
##alem
##skel
##skild
##onir
heg
heid
stim
stás
##dion
avmar
avtikið
vardu
##lagg
##orini
##orsøk
##avni
##avág
##kkurin
verjuni
##isliga
##ismál
##oyst
teinum
skar
skol
frís
fróðskapars
##ite
##ndu
##imir
##iment
fyribils
##atið
##atør
##narnir
1923
1911
1941
1932
##øgrið
##agarðar
##eytt
##eystri
##rasam
##ende
samein
samdir
samleika
##ssan
##ssamband
útnev
upptikin
##angur
##angarð
1899
1871
1896
elvir
hvassar
brøv
brøður
bróðir
brýtur
##iller
##esa
##esar
træk
##aldurin
##ivia
##olia
##øðir
eftirlit
eftirfylg
##eman
##emur
##øvini
flóð
fløgg
frammi
##unnhví
Føroysku
býinum
##ættar
##ættleikin
úrval
innir
##inness
heiman
heimild
heimavøll
nýstov
##ondo
leður
granska
gróður
grøðin
##entar
##varði
afturfyri
##otni
undirhald
nevniliga
ferðin
ferðamál
##ilda
altartal
##iðurskifti
hvørjar
hvørva
málning
málningum
krú
blo
samanber
samanbr
svara
##smiður
##smynd
vitamin
##brúgv
kommunum
##ida
##ids
týtt
týða
##erson
skrivstovu
Harald
##jarunum
Frið
skipari
##lutur
vakr
vaktar
##úrin
leikin
Mennisk
serligum
strong
##vørur
##udan
ímeðan
##tru
##shorninum
kappaðist
##arkollveltingin
heila
tekning
##skipa
burk
burka
skalt
miðlar
miðøldini
handan
handlum
##svald
##strí
##strinum
nevndarl
góðu
merkur
tónleikarum
ungmanna
høga
##átít
húsi
húsinum
dekk
kirkjum
Brand
roykja
##staðnum
bólkunum
Leon
konan
##ávum
hvítir
Grind
Gransk
##ferðum
##edy
##edonia
byrjanin
##sbrot
dreym
##iligari
starvsløn
Kríggið
førur
Sof
fríggja
frímerk
##atter
loyva
Flest
lýsti
##søki
Landbú
grevur
##skiftis
stuttleika
sjúkuni
snøgg
hóskandi
nærhendis
##otter
norðmenn
##ellan
Sjálvur
lógini
lógarb
møguligum
møguleikan
##srøðin
verkini
tjóðar
vinnari
##leysur
rep
seldur
Johann
heiðurs
heiðurslønir
boðað
boðini
hálvoynni
fremsta
fótbóltsvøll
skiftast
##ense
##ríkið
ráðst
virðis
sjónvarpinum
peng
peningi
penicill
ráevni
Orestis
undanf
stuðlað
Foreldrini
kavin
##rættur
##rættað
Havnini
knív
sýna
sýnir
sýsla
olj
##arheiðursløn
gudalær
aftrat
##agarðurin
##onsun
sterka
Guðrið
Guinness
bátum
báturin
bátarnir
planta
fyritøka
flogbólt
holu
holið
javnvág
leys
leyst
sending
sendingini
##ueblo
mánaðirnar
renning
silki
vinnandi
løgtingslóg
##stjóra
##ndurnir
uppliva
trupulleiki
lættur
lættliga
friði
breiðir
orkestur
Miðal
súkklu
høvding
akrar
steinur
steinsløg
rokn
drigin
beinum
Týdningarm
klárað
djúpar
Bea
hálsin
samstarva
samstarvið
5000
##garður
Maj
Max
Ongland
brotið
ljósið
prosentum
kristnum
anti
mega
megnaðu
torv
##german
dugdi
framleiddi
##undarlagið
kolanám
Berlin
##ítandi
dómsn
dómkirkj
skránni
Georgia
dyrkilendi
felagsskapir
festir
##partur
Húsið
##virksemi
##agrind
útlendingar
aldrinum
korini
fornøldini
Størstu
løgreglu
vandin
skjølum
luftin
íslendskum
fugli
fuglar
yngsti
yngru
Reyða
botni
##umbia
rúmdar
##bygdir
hugsan
Keypmannahavnar
tørv
skipanir
miðdepilin
##lyndi
sjálvstøðugur
Inst
Valley
dimmum
##sóknar
menningina
Arbeiðið
viðurkenning
Dagin
ríkisrætt
Kristina
Niðurlond
umfatar
samgongan
svevur
yrkingasøvn
haganum
##ameini
turrari
klárt
Luc
Ferðin
Tíðar
feløgini
teinin
teininum
aldursbólk
floksins
Finnlandi
##amarið
Nevið
horvin
pappí
sølu
##lukku
skrásettir
Eiðinum
náa
sagdur
##yngur
semju
plast
##ect
súkklarin
Colorado
moldina
samdøgrið
Beinta
Frigg
játtaði
Fólkatingið
Magna
fagur
oyðimark
kyknaði
treytir
##emplið
ISO
ellivu
##ugreið
##adeild
Kommunu
Kommunan
Læraraskúla
etni
punktið
røkja
óteljandi
##útgávu
Vinnarin
luttakandi
løgtingsvalinum
fuglabjørg
Korfu
Snjóhví
Fuglafjarðar
fjarskot
politikari
##usvim
##stríðnum
Castro
country
kenniorðið
##skrivarin
##skrivaranum
Heilsum
Búskapar
Carlos
Michelsen
hólmar
modell
súrep
systkjum
bjóðar
matvøru
ráðgeving
tænastum
FINA
Hálvdan
lastbil
tornið
siðvenju
internetinum
Guttormur
Ludvig
epli
mynstur
##feldt
skótar
regiónini
##fjaðrar
Faust
Festival
homrum
síðurnar
##dráttir
Odyss
sunnari
##flekk
eftirkomarar
profet
Eirik
Tollaks
eingil
nullpunkt
stjala
##lahoma
arkitektur
Turnos
CIA
Fámjin
Søldar
gjáir
##nýtslu
havhest
sjónarmið
##ágreið
hálendinum
prestagjaldi
Simonsen
Oscar
##javnt
føroyameistaraheitið
Ólavsøku
Oklahoma
Gregori
Fjølmið
Reiðrið
latíni
næstbestu
Kvinnurnar
Aftaná
Býráð
Gundadali
Little
##kohol
##untain
##akirkjuni
bróst
arbeiðsmegi
botulismu
##adráp
prædik
Jordan
Sydney
melduród
Úlvsson
##oyðimørk
Street
Victoria
Sierra
útlegd
Amsterdam
lutfalsliga
syðru
Marshall
Dimmalætting
avmarka
07
330
Ari
Arab
Bund
Bond
Borð
B36
Bod
Benj
Cro
Cop
Dem
Dáv
Dals
EP
Est
Eini
Eik
Esb
FU
Fjør
Fyn
Føðin
Gust
Games
Gly
Good
Hitt
Hong
Hugt
Heldur
Hitin
Halg
Henning
IU
Jones
Jamboree
Kja
Kent
Kjar
Kell
Kansas
Kórið
LG
Last
Leið
Lab
Luk
Londini
Lake
Lýð
Mir
Meg
Mot
Mót
Møgu
Male
Meiri
Nil
Navn
Neist
Nich
Oy
Op
Pu
Pel
Pap
Prin
Rav
Rev
Rog
SE
Søgu
Tang
Tind
Tumm
Túsundtals
Uran
Utø
Vis
Vert
Vinnu
Ye
Yo
Ziska
ala
bu
boks
bendir
banka
din
dul
dyr
fit
funk
feløgum
gn
gagn
gøtuni
hyggjar
jur
jall
játta
koy
kas
kaldur
kilomet
kollvel
kennir
kuld
kraft
lest
lukt
lamb
livur
lupu
mítt
moder
magnet
nøg
nes
nett
nerv
nashyr
park
pín
pink
plaga
rug
rond
sur
sni
sandi
she
syn
savnið
tól
tjó
triv
vev
vend
vrak
ÍF
Ógv
Óðini
ítøk
íkl
ótr
óvis
ørk
##ex
##eggj
##rúm
##nta
##nevni
##jøl
##jøld
##sis
##sæl
##sakað
##sdagin
##sylvania
##tý
##tað
##oh
##oz
##ous
##orit
##øsk
##øri
##key
##kina
##kaði
##kendur
##kropp
##dom
##drar
##dirnar
##drekk
##gensen
##gjald
##ghan
##lø
##ljó
##larar
##vik
##vend
##ýn
##fur
##fir
##føð
##mal
##ænt
##æsn
##cil
##com
##bet
##bel
##but
##bót
##barn
##ps
##pl
##ívur
##wn
##ware
##äl
##ID
##iness
##arlaga
##uminium
##stødd
##stjørn
##stykk
##erun
##eringar
##eraða
##eratur
erva
##ttu
##enu
##ensi
##unes
atferð
##skál
##skyg
##skjal
##rier
hey
hest
##amt
##amat
stokk
stork
stikk
vara
tilfe
##orff
##aveið
##kkin
##kkar
verur
verald
verjum
versjó
verðini
##isia
ský
skoy
skans
skandinav
friður
##ólt
##itir
##gga
##atu
##astr
##akyk
##aktión
##ometur
1925
1914
1928
##øguna
##agra
##eyði
##etrinum
##raw
havnina
##evnum
##endið
##araprógv
útgr
útsett
útinnandi
sol
##jørk
##ulu
##ular
uppf
uppgávur
##egis
fólksins
##økjum
##angan
##leiðing
brøð
brævið
brøðurnir
##esel
trøll
trøllak
##ivan
##skatt
aldu
landanna
landskapp
eftirsum
##emier
##tas
fløtur
frama
framtíð
framkom
framtíðar
framtíðina
Føroysk
býtir
sper
spurnar
##ipei
##ovast
##utl
##utin
##asa
##enny
heimspart
##osis
gran
gramm
granna
grunninum
grunnum
Stak
Stone
Stjørnu
Støðan
hesaferð
tíðinda
##ddin
##búgvandi
hevna
høvi
##áttað
afturvend
##frú
##frí
##otu
##oth
undirsjó
forna
forfe
forðar
bygningin
Hevur
Heitið
altern
hvørvur
blanda
blivið
yvirtók
sjós
veingir
veiddur
fjepp
##smonnum
##brøðurnir
kvik
##adal
##admint
##adøminum
hert
sms
metum
Einans
Einki
##oph
##flutt
##floyg
arbeiðsv
skrivaður
skrivstovur
##iggj
endin
Harð
Frukt
sjálvandi
skipinum
skipaðar
talar
talað
taldi
##irkjum
leikar
leiklist
##eyðugt
##tøkurnar
løgmans
løgmanni
##førdi
Teirra
##ship
Skal
Skel
Skúv
niðureftir
##arkv
heilsum
sigling
teknir
##vert
staðsett
Nord
sangirnar
##sval
##svalið
##svalinum
Trini
Træl
##strong
nevndina
mást
máað
máta
mátar
##málið
##málmur
mannin
mannam
mannag
##juana
##tingið
egnað
defini
Chang
kirkjulið
##ahaw
vístur
##staðir
##ekan
økjunum
##saman
ríku
ríkur
ríkastu
leiðarin
nýggjár
kontr
##gransk
##grunninum
polyn
Arge
flokkað
útgjør
Alm
filmi
Danish
##manninum
vegur
drú
dregur
drunnhví
læran
##iligan
Kreta
##amálaráðið
kommunurnar
fiskurin
fiskiskip
##ornið
landsstýrinum
loyst
kendar
##ráðnum
støðug
stuttge
fluttir
snúgva
nærri
##otte
##ykti
##prís
barnd
1907
1908
kongin
##skeiðið
lógarupp
##erto
tjóðsang
amerikonsk
amerikansku
andar
##ílurin
##burður
##burði
##burðurin
Núverandi
persóni
Tórður
##stovnar
sjálvar
##inton
seljandi
triðju
kallar
kallaðu
##valdi
##verkset
ættin
##ernes
ljósa
boðin
vaksnu
handilsmið
hálvk
fótbóltsf
dysturin
uppihald
##taruss
##aligi
##aligan
Amuli
barnsins
ráðnum
ráðandi
framleiðsluni
Spur
Spæl
##miðdepil
turka
telist
stovnur
mangro
Orsakað
bilur
##fjallið
##upulleikar
kavar
##ínur
sýnt
oljuni
##uglur
vanligasta
kjakast
flytast
hondum
hondini
hondina
skógunum
skógarv
náttúrutil
gudurin
gudarnar
Sec
ávirkar
ávirkaður
áhugin
##orida
##skúlum
einstøku
Samband
fullfíggj
hending
suðureftir
fylgir
ferðafólkum
Norðsjó
eygum
##ýsing
Løgmaður
Løgreglan
##gongum
##gangandi
##armun
súkklar
Nýggi
luftt
slagnum
##bókin
##bókmentir
##byrgdar
1848
borgarstjórin
trúboð
eyðkend
deyðum
orsaka
Geil
fastbúgvandi
Kappr
Sandavág
dýrini
##flutningi
##takið
landsstýrisfólk
Johnson
Vanlig
kunst
slavið
stava
##sdali
##líkt
brotsverk
Sigmundi
røðu
Mosk
##dómur
##bólkin
##bólkinum
útgáva
kristna
##ufólkini
Afghan
megnað
##afólkið
Sjúrða
indiá
##falli
blóðinum
svørtu
##issan
Kongo
byggi
harðari
staðfesti
politikkur
Nick
barnaeks
Medi
opna
##jaldb
##geving
##gávan
framførdu
fangi
fangar
kanal
##broyting
##broytingar
Law
evropeisk
serstaka
Bretska
Húsi
rakti
tungumál
frumevni
útlendskar
korti
stakløg
sjónvarpsrás
umtóktur
læknar
##dráp
##steinar
Fraklands
Reyni
##lendismál
##legu
##alisman
báta
standast
standmyndir
##gvøllurin
atkvøðurætt
Abs
##ynnings
##ídnaðurin
lyndi
víddar
víddir
Taipei
tempul
Anthon
ynskt
ynski
ynskir
búskapin
viðurkent
næmingum
djúpari
Malan
Torino
ritu
sukursjúk
Andreas
fongin
gulu
##filminum
Slov
##støðurnar
skúli
helmingi
sjónleikarinna
jólatræ
sandstr
turkað
Steggin
Hennara
vinnuveg
avtalu
##osaur
flogvøllurin
Venus
útreið
útróðrar
prýða
fígging
krabbameini
lovaðu
lægsta
##skriftin
##frøðiligum
Gamli
##asavninum
Jørgensen
##havnin
##ardagin
forsætisráðhar
Handils
##alívið
##shúsinum
Life
Road
sokallaðu
tryggingar
Beinir
Sørvági
songkvinna
skyldur
##felagsskapir
Fólkatinginum
almennar
Mattel
lóggevandi
restin
##olitikki
Continental
Palle
rým
áskoðan
ódnin
tiltøkum
hvalast
tónleikabólkur
búsettust
Hvítaruss
##aríið
kaff
linjur
myrdur
strikum
fólkasløgini
professionelt
Great
Pólland
skaldsøguna
Felags
Paulusar
avfallið
uttanríkisp
landbúnaðarjørð
Piet
eftirnavn
eftirnavnið
kvalifiser
kvalifisera
Turkaland
frálíka
kosta
kennist
umstøðurnar
##streymoyar
Time
kalendarin
niðurlendska
evangel
listaframsý
beiggja
Louis
lidnar
neutron
íðka
skógvaks
##akvøld
undirskrivað
heilivági
Elinborg
Nair
himmal
viðgjørd
umsitingar
fullkomiliga
sesongin
tjóðartinginum
##fjaðrarnar
urtagarð
Kambsdali
Lopra
Munurin
sungu
Marine
keldu
myntir
tjúgu
snúði
Einaferð
Ásia
ónda
undantak
Giro
taldir
walisiskt
bryggjað
##uspá
húsarhald
Kristian
Lamhaug
danmarks
imperi
vegsúkklukapp
Stríðið
guvernørur
Globe
yvirgangsálop
Keldan
nálaskóg
##ESCO
fyribyrgja
samanhangandi
Danielsen
Egyptalandi
Bolivia
Hawaii
UNESCO
White
gistingar
Århus
ferðamannaskip
Forsetin
ílatin
##prise
alheims
tíðarritinum
Stórabretlandi
Mezentios
General
Junior
møtast
ótrúliga
útsýni
útbreiðslu
Afrodita
Kollafirði
violin
ískoyti
fótbóltslandsliðið
jarðnøtir
fátækrabý
Argentina
Uttanríkisráð
Lüt
Sakaris
Virðislønin
##aguei
Stephen
vitaminir
parlament
Profession
kjarnorkuváp
Dansifelag
Zachari
##rasamkom
Tollakson
Benjamin
FUR
Kjad
LGBT
Maleisia
Tummas
Utøya
stuttgeil
Afghanistan
barnaeksem
Anthony
Lamhauge
08
450
411
560
650
AN
Bal
Bud
Born
Bou
Beng
CO
Cand
Cre
Corn
Camp
Carta
Der
Des
Dýr
Deyð
Dona
Ec
Eil
Ess
Eyg
Emir
Etiop
Full
Grim
Gilli
Hól
Hest
Hædd
Haraftrat
Im
IF
Ill
Ja
Jr
Jól
Jóm
Ken
Kast
Kunn
Kas
Kamp
Kore
Kinver
Lið
Loki
Mass
Mítt
NS
Ney
Nevnd
Nýs
Nokia
Of
Pyr
Plut
Prot
Ru
Rygg
SA
Sandi
Seg
Sina
Suni
Sera
Syst
Sant
Sib
Susvim
Tong
Tro
Tvør
Tian
Ull
Vik
Varm
Wall
Wei
bit
bál
bang
bót
beyð
benda
biðið
dim
dani
danskir
danskar
eur
eingir
figur
fundum
gri
gjó
gørðunum
gýtir
hum
hir
hall
hørð
holl
hørðum
hættir
hurð
iP
ini
jav
kø
køk
køl
kai
lú
litt
linna
lab
mari
míl
móðir
medi
nøvnini
pann
pre
ren
rikið
red
rakk
ringur
retur
runnið
rák
røtt
rusk
rúgvu
sens
søvn
suks
ts
th
tin
tar
tend
tykk
un
vó
vig
vali
vindi
Áður
Áland
Ábra
Álop
Ód
áh
áseta
ær
ít
íkast
ótu
órætt
óvirk
óbygd
ósjón
øks
##ea
##eður
##ðum
##aard
##rest
##ranum
##rýst
##rímur
##rønu
##no
##navn
##nos
##nanum
##niger
##nchen
##jo
##jana
##sst
##sav
##sat
##snar
##sleið
##síðan
##sligt
##sess
##soyar
##tuni
##toft
##oa
##ois
##ørist
##kong
##kort
##kasia
##do
##dálk
##ux
##uan
##gongur
##går
##lanum
##liti
##loysi
##vari
##vali
##vice
##hú
##hál
##heið
##hem
##hond
##hátt
##ýti
##ýrar
##faðir
##famil
##mað
##menta
##mont
##æna
##ævis
##ct
##cel
##cia
##cember
##bin
##bri
##boy
##bul
##bond
##pot
##press
##är
##ão
##åg
##ÍF
##arak
##anararnir
##umegin
##urg
##stak
##stænast
##erandi
##ildur
atlit
atfinn
##alen
##aley
##alympisku
##skop
##onos
hep
heks
##anning
##inge
##ingis
##ingist
##amy
##amynd
##amman
##amib
##ampur
##amenti
stól
stættir
##leggja
avr
avgreið
varp
varal
##lav
tilfeingi
##orka
##ormi
##avin
##avør
##avæl
##averkið
##kkum
##kkir
verði
##isan
umset
umheimin
teig
skál
##itnu
##nnu
##ndum
##iknir
##ikatión
##imp
##imaður
##ppin
##atre
##akon
##omini
1924
1935
1926
1915
##agur
##agon
##agjógv
##ets
##ggjum
havumhvør
##endanum
##endingin
##endingum
##estin
samskifti
sameindu
##ssin
##iske
##iskald
útlag
útskriv
útlondum
útfrá
sova
##uland
uppskoti
harðr
##slar
##slok
árgang
árslok
eittans
##øktar
##økjunum
##økstri
1880
1891
1824
1898
1840
1889
1869
##leiðina
##ugøtu
##ugrein
hvøl
brýr
brenna
trot
træt
trupu
trettan
##ivik
##ivatn
##olikk
alis
almanna
alstór
##øðuna
##leikinum
##roit
framá
framyvir
##reing
##eiro
Føroyam
býlingar
spir
spjó
spent
##ipl
##ovi
##ovasti
feitari
##utr
##asj
##asin
##asøgu
innlim
inntil
heimsum
heimskr
heimbygd
nýskap
##úsalem
sjól
##allar
##osp
##artunnilin
##stuð
Stig
Stev
Studio
forrit
fortreyt
nevi
nevinum
ferðsluni
Heðin
fára
oyra
dagført
málningar
málsliga
krígg
##ógvur
blom
yvirn
##arverk
##arvørur
fjald
svøl
##smanna
##brum
##brøv
størst
størvum
##ogh
##ýru
##ýrini
kvett
kvøldi
herin
herurin
herja
##ical
spælið
spælarar
Einasta
##okus
arbeiðarar
##apart
endaspæl
Haraldur
Harrans
##jarta
Fræl
##øguleikar
tóm
búnaðar
##uprís
talg
talvi
##sens
leikur
leikari
strat
liggjandi
##tøkuni
##tøkuna
løgið
løgunum
løgfrøðingur
##førur
fermetrar
##shatt
fingist
lívsins
heilanum
heilaga
slær
slím
sløttum
uttanland
tekstur
##vernd
##støðið
##støðina
Býar
gamlan
Norra
##skipið
miðjuna
##svatn
##ubólk
##strup
mánaðar
##abe
##abók
hindu
dømt
dømandi
liðunum
##málm
mannað
manning
merkti
##yggingar
burturkast
virknir
langi
##sparti
tónleikakapp
bókmenta
ungunum
høgir
egnan
##átu
húsdýr
húsagang
høvuðsá
høvuðspers
kirkjus
##ahavn
##afrik
##afjað
vítt
limalond
klók
sambind
Leo
vatnorku
norði
norskt
ríkidømi
leiða
##alth
##grav
evnini
hvíla
Almann
ávum
filmunum
listin
listamaður
beinini
beinagrind
sínámillum
søgnin
##arbyrgi
vísindi
##ynj
##sbú
drongur
druk
drongurin
líki
lærdu
lærarar
starvið
brúnum
myndar
##ækar
Soul
fría
frítíðar
landsstýrið
landslagnum
hugflog
loyn
næstformaður
Flestir
greina
veldi
##lutir
ongi
stuttari
Herning
valmenn
sjúkuna
túrar
##komið
fyrstur
fyrstani
##prest
trýsta
1905
grundini
##gerðina
Norðurír
matna
matstovur
yrkjari
##øldin
verkinum
føða
vinur
vinstra
politiskir
amerikanskari
Neutron
ovara
borgum
Atlantshav
Athos
##leysu
Tórálvur
Evensen
kallk
kallaði
kallaðir
víðag
Vágsveg
ættir
Nógvastaðni
hvørjumegin
skreyt
boðið
handilsv
stigið
Andersen
vetri
fótbóltsv
fylti
bønum
bønir
ráðið
framleiðslan
Spor
ilsk
sym
turrum
Els
Elsa
Elvis
telvar
róðr
mettu
svarti
tingmenn
bili
vørurnar
##fjord
##fjalli
skapar
Forlagið
farast
kavbát
status
háttur
knú
sýningar
vanligir
kjall
kjøti
Teater
ídnaðarl
1912
hondbólti
litum
litirnir
##ambar
##heimi
skóginum
týðiliga
##onsor
sterkar
sterkum
Gujana
##ampar
stríðnum
##reglur
fløga
sendar
skilti
Uppruna
hendingin
hendingina
Dean
Deildin
eygað
missir
løgtingslimur
ítrótti
ítróttagre
persónlig
Løgmans
reiðrast
Páls
breiðari
##sfirði
endurv
endurminn
Miðskeiðis
##ismuna
fruktir
menniskjuni
noyðast
vestri
lukk
Svenska
##board
##inea
flýddi
deyðar
sólar
minking
fastir
Beach
insulin
láglendi
landsluturin
veitslu
landsstýrismaðurin
vorðnar
vorðnir
stavað
stavilsi
##sdystir
Mariu
minningar
##fatandi
koyrdu
kristind
ans
finalu
##røum
megnar
megna
##nevndini
##eltið
dugn
prestar
presturin
konservativ
##fallið
##fallandi
eystri
Ungmanna
veiðir
##føða
Heimsins
myndugleika
myndugleikum
myndugleikunum
Egholm
pápan
Anker
dómari
kravdu
kravtíðina
Framsókn
dyrkaðu
##alandið
granskari
##seig
sáttmálan
fimtan
##virki
seyði
seyðurin
álopum
Country
korall
vápnað
føðing
føðslu
lokala
lokalum
stakfl
sjónvarpsrøðum
kjarnu
##skorari
##rosoft
Leikurin
##achel
formurin
filmarnir
kornið
##rokes
Hvid
Prís
Premier
skelja
Landsstýrið
bankar
hugsað
inntøkur
mentanarliga
Abkasia
tørvur
vindmyll
pásk
mannaførum
hundraðtals
Koltur
grindin
##framleiðari
##ætlanin
næmingur
Malavi
Nikola
meining
meinti
russisku
sukurrør
Stadium
tapt
##ights
samgonguni
sveis
##smenninir
professari
flagginum
Williams
veðurlagnum
Latium
Stef
Henrik
illgr
móttikin
samtykti
kláraðu
búseta
toppskorari
avtalan
flogvøllinum
landbúnaðin
Venstre
halgimenni
italsku
italien
teinunum
vísindaligum
Eyðk
Glæsn
Myndugleikarnir
##ution
##amarinum
Fiskiv
José
Listi
Nevnast
Nevada
lovaði
helluni
framhalds
veingjum
##frøðiligu
heilsuna
synirnir
Delfi
mammuna
toftir
##slógini
skjótastu
norðurlendska
norðurlendskt
knýttir
gentu
Víkarbyrgi
klettum
##shavið
góðkent
góðkenna
Charlie
Beint
bussar
bussinum
kopari
##avirkið
##avirksemi
fólkarík
grøna
eydnu
almennari
Sosialist
krevst
tjúkkur
Limirnir
drotningin
hóttur
áskoðarum
heimsmeistari
smittað
gøtan
kaldari
møb
##atíðina
kenslu
Børnini
Microsoft
bindandi
rannsóknar
##roppurin
kappróður
skaldsøgan
Airport
fíla
sitandi
ognarrætt
bústaðir
latínska
bannað
hitast
tilnevndir
protest
Detroit
Nólsoyar
bakkanum
hentleikar
bergið
berginum
prinsess
trýstið
keisara
frálíkt
dóttrina
írskt
##issippi
sjáldsamt
dreingj
týdningarmikla
dripnir
timburmaður
Michel
múrinum
pallin
avleiðing
fólkavøksturin
heimsmarknaðinum
stríddist
katólsku
Knút
Pierre
kókað
kriminal
krimiskald
túrinum
##vaksnar
##vaksnir
##carolina
skógvaksin
##atrium
svimjihøll
ráðgevi
Borgar
Lutakastið
abbason
ynskja
teknifilmunum
Breivik
Donald
Miley
arabiskum
gerðir
tyrlu
vátlendi
Steintór
heiðurslønina
upplivingar
friðaravtal
##isiana
Alexand
Alexander
steypakappingina
bendast
subt
tjúkt
Standard
norrøna
aðalfundinum
tilvildar
Bátarnir
Ronald
eggjaði
hoyrist
øgiliga
arkitekt
fólkaatkvøðu
oyðiløgd
Geyti
Geyta
Mikkelsen
Svínoy
Svínoyar
bringuna
spjadd
vantandi
vanlukku
loyvd
animatión
elektrisitet
Grikkalands
Jerúsalem
Libya
brasilska
prikkum
sligin
##eigari
##asmiðju
vegsúkkling
guvernør
løgreglumenn
Batman
keldum
rudda
ísraelsfólk
óvanligt
##ssendingini
oyðileggja
býarpartinum
sjóvarmálan
Dubai
Kennedy
ítróttafólk
##hvalur
##fuglar
stívliga
skatta
Company
Human
Kamerun
Skúlin
undankapping
fólkateljingini
ítróttarhøll
heiðursmerkjum
Homer
Oxford
Tony
tankar
vulkan
lærusvein
ljósareyð
atkvøðugreið
skúlagongd
fortelja
Numitor
Mørkøre
Rodos
kømur
lomvig
tónlist
##ebook
steyr
##ssjúkrahús
fyrilest
##frælsi
veðrinum
Skaldsøgan
Allastaðni
Theodor
Flogvøllurin
Jóansøku
Norðoyast
endurnýggj
Beinis
Enterprise
Group
München
Pennsylvania
Sesongin
Tibet
Vísind
Windows
vætu
ómetaliga
Stuart
Sparikass
Antiokia
Havgrímur
floygdir
Singapor
einkultstarti
Saksun
Viborg
##angarðs
nýstovnaða
lógarbrot
penicillin
ríkisrættarmál
Esbjerg
Gustav
Nicholas
kilometra
ørkym
Stakríkið
undirsjóvart
alternativ
##adminton
Slovenia
Lützen
Donau
Eiler
Etiopia
Nýsæl
Tianjin
Ábraham
Glæsner
04
050
680
850
920
AC
Ana
Aut
BA
Big
Bel
Bald
Bakk
B68
Brit
Banka
Battle
CE
Com
Cyr
Cli
Da
DR
Dali
Degi
Down
Es
EU
Ele
Ester
Eze
Fi
Funn
Final
Fash
Feder
Gh
Gar
Góða
Hú
HF
HI
Heið
Hist
Hart
How
Hamp
Higartil
Isa
Iran
Islam
Istan
Jong
Jøk
Just
Jazz
Ki
Kri
Kirk
Kop
Kví
Krim
Komp
Lil
Lig
Lor
Lis
Lik
Lutt
Lad
Lok
Laks
Lanka
Lýsingar
Lendið
Má
Mis
Mær
Mol
Mans
Mind
Mah
Mour
Mán
Mamma
Moder
Næ
Nim
Neyt
Naks
Nesi
Ot
Oynd
Pil
Pun
Pit
Pos
Pent
Ped
Palla
Palli
Pink
Que
Rann
Rang
Rús
Rís
Roll
Rob
Røðin
Rick
Ríkis
Ragnar
Si
Sur
Sri
Sav
Ski
Súkk
Sokrat
Súlu
Ti
Tis
Tom
Tre
Tætt
Tenn
Tjóða
Tomm
Tingið
Tunnilin
Tutl
U17
Ví
Vøl
Virð
Vold
Wo
Ward
Your
Zw
Zar
Zid
as
aks
apa
astr
akkur
by
bør
bing
bøg
bindi
brig
bukk
bindur
corni
dir
det
dest
deg
dali
dygd
danir
dipl
eð
ef
ent
etin
element
fet
fald
fot
føl
farv
fundi
fút
favnar
foss
funnar
fella
folk
faktor
fanst
gall
gjar
gólv
gøturnar
gummi
hur
hiti
hung
hárið
hydrogen
japan
ka
ky
kri
kland
kalda
karm
kós
kóp
krabba
lur
lita
lod
lib
lunnar
m²
mol
mala
mjúk
mjá
móta
meistar
num
náð
ofr
pi
po
ph
pop
pung
pdf
ringin
rút
sør
sirk
súgva
søt
sáp
sár
sám
satt
systur
tu
tál
tjald
tindum
tyng
tindar
ug
vor
°F
ºC
Ásg
Ægir
áheit
ábyrgdar
æti
ísi
óend
ósam
øði
##eå
##eki
##eitur
##eille
##iu
##afl
##rú
##runnin
##ná
##nytt
##jk
##jara
##jøk
##jút
##ów
##óla
##sandi
##sfelagið
##sstjór
##sligur
##sleikari
##yc
##ytta
##ykkur
##tandi
##tænast
##oi
##oil
##oða
##ofon
##karnir
##kopp
##kykt
##dóttir
##dona
##gast
##londini
##loss
##vini
##vist
##ville
##vognar
##hyr
##hold
##hæg
##hýs
##ýði
##ýsti
##fum
##føroy
##fót
##foss
##mö
##mang
##map
##meld
##megi
##móðir
##áar
##áði
##ásin
##æið
##cu
##cer
##bit
##bara
##bol
##bana
##bæk
##bank
##bilin
##bili
##beth
##báti
##pí
##punum
##pings
##úrar
##MI
##TP
##Tube
##ía
##zel
##CN
##EC
##JM
##öd
##öpings
##ISA
##ås
##arav
##arligt
##anch
##uráð
##stal
##stætt
##strik
##sted
##erb
##erin
##eraður
##erup
##eraðir
ognir
##ilinum
##aðni
##aðani
##enum
##enskum
##enslu
##une
##unan
##unlar
##alíð
##aleg
##alus
##alismu
##riska
##ritum
##onum
heyg
heint
heyggjar
hettar
##annað
##anninum
##anningar
stel
stingur
##dio
##dison
##iniu
##lef
avtikin
viðf
viðarlund
##igt
##igum
##lakur
tilb
tillag
##ormar
##avar
##isman
umfari
umførum
umfarið
umsókn
##oyingar
teini
teld
skýggj
fra
fro
frík
fruk
freist
fræg
##andt
##ando
##andandi
##itil
##itut
##itetur
##nnor
##ikarar
##ime
##imi
##iman
##imon
##ppa
fyrifallandi
##ats
##ating
##atra
##naran
##nararnir
semi
##akari
##akjøt
##álaráðharri
##omon
1921
##íðar
##øgunum
##øgrum
##agd
##agni
##agrar
##agog
##lige
##etrið
havnin
havnini
##else
##jótt
##jónin
##eves
##evndir
##endamál
##ongdir
same
samsv
samskift
samlað
samlaðu
##sset
##ssel
##ssess
##ssáttmál
##ssending
útis
útbyg
útvald
útjaðar
sod
##ulum
##ultur
##ulop
uppeftir
upphav
upptøkur
uppstill
frástøðu
títt
tíggj
harður
harímillum
##slin
##sloysi
##tions
árlig
##økir
##angel
##istøð
##istov
1850
1881
1860
1864
1888
1876
1865
1830
1882
1832
##leiðir
##leiðini
##ugerð
##ugud
elvt
bræv
trað
trøð
##íkavæl
##aldemokrat
##úgvan
##olsku
##skatti
alkohol
landst
landslu
landøki
Hannover
##øðuni
##ansin
##ansar
##emin
##emont
##leikara
1794
tátt
fløtum
framm
framdi
framat
framdu
framdar
##jab
##rett
##reinum
##revur
##reitt
stórvegis
##ygt
býður
býti
##ættis
sponskum
sponsor
##ipunkt
feil
##asy
inngang
innrás
innrættað
heimsh
heimlandi
##usi
##usar
##allica
##osar
leiga
grunn
gróðurin
##entu
Stokk
Station
##búgvarnir
høvdi
høvundur
##óðu
undirskrift
forboð
forfylg
tvík
arval
arva
bygningurin
##head
ferðum
ferðaðust
Head
dagfest
##uðu
##ningini
kron
krák
krógva
yvirtaka
##úka
íbúgvatalið
samanborið
veks
svomið
##sman
vitjan
##breyð
##bróðir
organ
íbúgvaratalið
##ettur
##ettub
størru
##ogun
##ogue
kvæðið
kveik
herverk
smið
smolt
##ics
spældir
##ople
##opher
##oke
skrivari
skrivih
##organ
endingini
endurt
Hard
Harris
Frans
sjálvræði
minna
skipaður
##ardep
búna
##endurnar
talt
vaknaði
##tíðir
##úrt
leikarunum
serligar
strev
straks
##orts
##ustovu
stovnum
##trúgv
Umhvør
##førini
##førara
ferju
##akao
Skr
Skor
Skúgv
Skjótt
niðurlag
niðurfyri
niðurstøðu
kappaðust
heilar
siglingar
##satt
##veru
##støðuni
ymiskan
ymiskur
prakt
preri
prógva
rætti
rætturin
rættvís
rættindum
##skipini
burðard
miðaldar
handlunum
##chi
##chester
sangi
##sven
Try
Trø
Tran
##ubb
##ubúð
##abý
##talið
góðari
góðtaka
dømd
partvís
##yggir
tónleikurin
ungi
ungarnar
húsast
høvuðsg
debut
Ché
Charl
kirkjurnar
##afj
##afé
##afrost
Brøðurnir
Brønd
klom
##ekti
##mass
økir
økis
økjast
øktist
aminos
amatør
ríka
Joen
##æðini
##gramm
Arbe
Aráb
evrop
lítlu
hvíld
hvítan
Grá
Grundin
##kvator
útgivnar
ávara
listaverk
##edal
søgunum
Fólkar
##arbý
##arlundin
##sboð
##sbólkurin
##sbóndin
##lendingum
drag
dróg
droym
##iligir
starvinum
hjálpt
myndat
##suk
proton
fiskav
frísk
huga
hugn
hugskotið
##uku
##veik
##vekt
loypur
##ace
kendum
Fyrra
lýggj
niðara
niðaru
Landsverk
velturnar
##lutan
stuttu
stuttfilmar
regni
regnt
reglum
reglunum
snýtt
##fors
##antinum
##antán
##ellið
##ellingin
##assen
##frøðin
##frøðingum
##indiánar
1909
Viðarlundin
kongsins
kongsríki
##øðurnar
##mentan
##úkkling
Norðurnor
møguligar
one
##býnum
mati
##búð
##srør
verkfall
soni
føturnar
vinkon
##flokkur
##flokkarnir
amerikansk
amerikonskum
amerikanskum
andstøðu
##gjørdur
Atollin
##leysum
##leysir
fólkatal
##stova
ensk
##inther
seldu
mentanini
mentanina
##settu
triðstørsti
kallaðar
víðgong
##orkestur
ættini
ættaður
skræða
ljósi
innihaldinum
vaksnar
##søga
##søgn
fremra
fylla
tættir
##velt
Florida
Amt
Amnest
síðsti
ráðum
Stórá
Spani
luther
virðism
Hinir
teldur
hjálparv
hás
legur
##ddie
bilverk
lesur
søgulig
søguligum
skapi
skapti
ferðasamband
mótmæla
3166
statur
knø
meginøkinum
oljan
olymp
tosar
##ffur
##arhol
##erium
##evninum
vanligar
vanligan
desim
Tíverri
látur
náttúruv
gudarnir
aftara
##hai
##agarði
eldurin
Seoul
sterkan
áhugaver
##snið
Guantán
stríðist
flogfar
flogfari
deildin
deildina
holuni
umboðan
umboðum
umboðaði
sendingar
##aráðhar
skiljast
mánaðin
sjónleikarar
fullan
vinnan
upprunaligu
fjølment
fylgdu
fylgisv
ferðafólkini
ringa
ringir
Norðan
Norðoyggjum
missi
misálit
rúmi
##gongan
Reeves
friðingar
hitti
endurskoð
steinkópur
menniskjum
menniskjað
noyddur
luks
Svabo
##bókment
1849
trúarbólk
blaðmaður
eyðkendur
eyðkendu
Helst
deyðir
sólina
1937
siðum
býttir
minkandi
fastan
stýrir
Jack
hálvur
##uvatn
Vitni
Shang
Show
bretskt
Olju
##sdjór
heiðra
sjeynd
brotin
vøkrum
veruleika
veruleiki
veruleikan
##depilin
Mount
Turið
goysa
##bólkum
##ometri
Erl
svimjikapp
keyps
##nevndin
Annu
Annar
Tóri
nøkta
rithøvundum
lýsing
Newton
Høgna
indianarar
bóndanum
bóndagarð
framleiddur
harðskapi
##undarlag
Blo
Blóð
Paraguei
Paralympisku
Ungdóm
myndugleiki
glaður
opnum
reyður
reyðu
##gevi
royndar
Vestan
Vester
afg
guitari
Kvenn
Kvinnu
djórasløg
slíkari
felagsskapi
felagsskapinum
##skilt
sáttmálalondini
umhvørvinum
evropeisku
evropeiskari
fimleik
avgjørd
avgjørdu
serstakt
landsliðsboð
Talv
eysturrík
rakar
ókendur
fornmin
kappingunum
##ukku
staklagið
løgregluna
sjónvarpsrøð
tjøld
##ønirnar
##skorin
skjalið
luftina
Mongolia
íslendsku
##bløð
fuglum
læknin
einstakan
einstakur
einstaklingar
fallið
formaðurin
aðalráð
Eineiasar
Reyði
vænta
##runnum
##legði
fótbóltsfelag
konsertum
abba
steinum
grannskoð
grannalondunum
##skógir
standandi
Landslagið
Amerikanska
bankanum
##skrá
sosiala
sosialist
Mortan
rørslu
vøtnunum
inntøka
ferðavinnuni
Mads
vindurin
##ídnaði
útflutningurin
svartir
goymslu
##ævrar
##smiðir
jarnbreytini
bíbli
temper
templinum
grindadráp
Isak
Musikk
Schen
dimmari
##jálp
menningini
búskapinum
borðinum
fakfelag
kostar
náms
russiskum
Produc
gulum
rúsevni
sálmar
slættlendi
Kortið
samgonga
vælumtóktur
sjónleikarhús
Summarið
diesel
##atorar
svenskt
arbeiðsleys
Aðrastaðni
gongdin
gongdina
katolikk
myrku
ørgr
ørindi
##ervat
hópdráp
høvur
fruktagott
fruktagóða
víkingur
fleirtali
landbúnaðurin
Pride
kekki
ákærdur
fyrisitingini
útryð
vísindafólk
Tvøroyrar
Ingolf
revsil
sethús
sethúsum
Onkur
Royn
##leggingar
viðgerðar
Skipið
Hægsti
##bundna
tónleikaútgávur
Scott
rómverska
rómverjar
tykjast
##bilum
##slógin
stórbýum
norðurlendsku
teldupost
knýttur
##holms
Kontinent
boði
gentum
karakter
eindirnar
klettar
toki
teimun
sokallað
##slættin
songkv
savninum
##síðir
stjørna
skemtir
bygdarráð
##felagsskapur
##eistarakapp
vikuskiftið
heimasíðu
Katrin
Miklad
Metal
Metallica
pínu
##plássi
##olitikkur
##stads
gráum
blettir
samansettur
Palatin
ófriður
##løga
##ompet
Statoil
búsettist
ellig
ellis
eksist
gøtunum
yrki
##stigi
##brúkið
tekstin
##acken
McG
røkir
samráðast
sonevndu
##útgávum
Clinton
gosfjøll
garðin
gassi
kórið
samkomur
útfly
##brúnum
##brúnt
orðabók
kappróðrarb
grundarlag
grundarlagið
skaldsøga
løgtingsval
aktiv
aktivur
Airway
búkin
knappar
tolir
##náms
selda
Bøndurnir
Vegurin
meksik
úttikin
vitjaðu
##flogfør
Sambandsflokkinum
ovurstórum
fjølbroyttur
Kjøl
fjørðinum
kastaði
saksøk
søkti
##báturin
fjallat
##stríðið
bananir
dukkurnar
vánalig
kvæðunum
herdeildir
herdeildunum
mannarættind
mannarættindi
sjáldsamur
týdningarmiklir
borgarakríggj
borgarakríggið
væntandi
róku
##omeini
fólkavøkstur
sjálvsagt
Louisiana
Syðri
Ymiskt
bjóðaði
tunlar
##breidd
heilivágur
brúnlig
sniði
neyðuga
Longri
YouTube
bumbu
tradi
íløgu
##oleon
##offur
vinstrumegin
skriðdýr
skriðulop
forsetavalið
siðvenja
internetið
Khalk
Khomeini
Napoleon
Sunnanfyri
Sáttmálin
firðum
mynstr
sunnudagin
##tekin
smakkin
Christopher
átrúnaðarligum
Festivalurin
Mentanar
gandak
kollveltingini
sungið
leikstjórnað
amtmaður
Carrie
Odense
dálkað
haldast
rógving
vask
ósemja
skaðad
universitetið
Gásadali
Gásadals
Kanningar
Marseille
gávum
oddamenn
tindarnir
##skerið
mannafarið
jødiska
Gomlu
Grace
Hetland
Júst
Laviniu
Mikkjal
Regiónin
Sarah
breyðføða
Championship
Gabel
kinesiska
sligið
tignar
eftirliti
##udeild
háslætti
dialektir
prýðis
trúarjáttanin
Svarti
gotfjøður
##slívinum
Stovnurin
##brævinum
vakurleika
Nordisk
matstovum
yvirlivdi
sjóvarmálanum
Dublin
Kalsoynni
Lagos
Yrkis
gagnn
pálm
##søe
##hólmur
strekki
grøvina
Høvuðss
Blue
Varðin
gágg
##dystirnir
krúnprins
sniglar
Tórsvølli
Bahá
Plátan
Rose
##vápn
##islavirk
fraklendingar
trónuna
gróvu
gróðrarl
nærmastu
hvøssum
hittlistum
Faroese
Norðuratlantshavi
Boko
Emmy
Gates
Makedonia
Nolsøe
Randers
bidda
sjógvurin
Umboðsmann
Trongisvági
##gráur
maskinum
fíggjarkreppuni
Apollon
Hermiona
Maradona
Rithøvunda
Vinnumálaráðið
likam
óreglu
viðhaldsfólk
skurðvið
tryggjað
grýtut
herjaði
sjálvboðin
greivadøminum
American
Akrabyrgi
Strandferðslan
alfabetinum
Attika
Bispurin
Harvest
Ohio
Sifnos
Uganda
gluk
ident
kennast
ommu
málningalist
Granskarar
undanfarnu
Gregoriussen
melduródnir
IUCN
Puerto
Prince
dinosaur
pinkub
Ógvuliga
ótrygg
veraldarb
útgrev
afturvendandi
Trinidad
lógaruppskot
Amulios
náttúrutilfeingi
Secret
Moskva
Nairobi
Uttanríkisráðið
NSÍ
Pluto
Sinai
Sibiri
Varmak
returdystirnir
tykkum
áhoyrar
##nigeria
fárao
symfoni
Elspa
kristindóm
illgruna
subtrop
Norðoyastevnu
Ezeki
Istanbul
Naksos
Oyndarf
Rannvá
Zwarte
akkurát
sápu
semifinal
Umhvørvis
Charlotte
Amnesty
Guantánamo
fornminni
Palatinheyg
Airways
01
1½
365
340
444
580
776
950
960
Aw
Aks
Asti
Alan
Aarh
Aggi
BT
Bær
Bog
Bali
Bern
Bour
Bumb
Báb
Baden
Bólt
Bæna
BMI
Cum
Cir
Cam
Cle
Cong
Cald
Camb
Cec
DJ
DB
Dar
Dig
Djór
Dark
Dóttir
Døgg
Dún
Danskt
DNA
Deyða
Eb
Ep
Eft
Eitur
Epir
Fal
Før
Ful
Fígg
Fern
Farm
Filmar
Fili
Fiski
Fulla
Gö
Gang
Glu
Gjógv
Gyld
HU
Hini
Hinum
Has
Hog
Høll
Horn
Hamil
Hagar
Hille
Hesti
Ig
Ib
IP
Ili
Imp
Ivan
Jø
Jim
Jag
Jul
Javn
Jimm
KT
Kum
Ker
Kla
Kev
Kald
Kung
Kamarinum
Lo
LP
Lar
Lan
Loy
Lak
Líð
Lord
Ljós
MT
MA
Mini
Mand
Mem
Miri
Mos
Móti
Mac
Myrk
Mala
Mín
Mongu
Maldi
Móðir
Mamman
Makao
Nu
NO
Natur
Namib
Nógvur
Ovur
Out
Over
Oyggja
Pir
Pitt
Para
Pláss
Pidd
Patri
Potter
Ró
Rík
Reyð
Rib
Ríkið
Rød
Sý
SM
Sí
Sar
Sik
Sat
Som
Sorin
Sudan
Tak
Test
Toll
Tung
Trop
Tólv
Túrurin
Up
Utt
U23
Vir
Vla
Vang
Vall
Vod
Vivin
Venj
Vider
VII
Wa
Wu
Wat
Winther
Wacken
Zevs
ac
apost
bin
bir
bandi
bana
børk
bakka
back
bóðu
da
dj
dø
dig
dist
dia
dygg
dát
dún
døgur
dump
degnum
ex
etru
ekvator
fúr
fiti
feld
fib
fundir
føldi
farnu
fokus
galda
glað
gumm
guv
hið
hun
hjør
hold
hamp
hóttir
halin
hýsa
ir
iT
ivi
jam
jallur
ker
kól
kál
kna
keð
kúl
køld
kopp
kore
kipp
kelda
kyni
klipp
ló
løð
liður
lystir
lunda
lætta
mað
mjør
mut
møði
makr
mikil
meistari
móru
nas
nót
natrium
pe
pl
pum
pri
pik
pat
pund
pyr
port
poll
prim
punk
peik
pueblo
pløga
ret
res
rind
rad
rigg
rust
roll
ringum
runnar
rindar
røttum
ruku
sir
sund
snara
saks
sif
sundið
tund
tut
tog
tern
vr
vm
vað
vinum
vang
veva
vøllin
Áirnar
Ætt
Íbúgvar
Ósem
Øl
áfram
ástøðið
æðr
ævi
ævig
íd
ísp
íðin
íbu
ól
óh
óla
óskil
óveður
ómøgu
óbygdar
øsku
##ef
##ean
##idi
##ðingi
##aftan
##rí
##rol
##rastaðni
##røkt
##roynd
##nst
##nál
##nátt
##nurnar
##nøtt
##names
##namann
##nevnið
##jólk
##jug
##óman
##ónia
##sy
##sak
##sch
##sligar
##yer
##yndi
##tis
##tónleik
##oir
##oon
##oice
##ønar
##kø
##kik
##kingar
##kas
##kus
##korn
##kyk
##kelsi
##ds
##dnu
##ui
##uff
##uatu
##gyr
##got
##grik
##gass
##gæti
##lé
##lini
##lus
##løgu
##lugerð
##vev
##vøl
##vust
##viðurskift
##vatni
##viðurskiftini
##viðurskifti
##100
##halda
##hyd
##hova
##xon
##ýggja
##fra
##firð
##feri
##fjørður
##munum
##manum
##mett
##mud
##mikil
##áður
##æmi
##ævi
##cos
##cent
##card
##bakk
##bøkurnar
##pis
##purnar
##pílur
##politikk
##úlan
##TI
##ísk
##ívar
##zan
##zer
##zon
##zabeth
##wat
##wall
##wah
##wich
##wondo
##än
##CE
##HF
##ång
##qa
##°C
##innar
##arett
##aríki
##anevnd
##ston
##stinum
##starv
##stjóð
##stone
##stænastu
##erm
##ersk
##ilist
##enar
##ensku
##enberg
##enge
##untu
##unarh
##sky
##skuna
##skyl
##skyld
##rita
##ript
##onk
##onin
hekt
##ørtum
##ørtunum
##ingirnir
##amis
##amboð
##ameistari
##amenos
stjúk
støða
stundir
stink
stabb
stykki
stíli
##dikt
##leitt
##leyst
##lestur
##leidd
avbjóð
avvarð
avhoyr
viðferð
varve
varnast
varafor
##igu
tilmæli
##avert
##kke
##kkinum
verki
fys
fyllir
##isin
umsøk
umaftur
umstrí
umgyr
##oyndir
##ftinum
skýr
skeld
skaðar
skóta
eintali
einamest
fre
fríð
##ólum
##iter
##itini
##itíð
##ndurnar
##iklum
##ikapping
##ppur
##ppers
##atingið
##astættin
##narnar
setr
##aker
##akti
##akvinna
##álka
##omul
##íðu
##øgn
##llo
##agi
##ags
##agey
##agøtu
##eyti
##eyðurin
##ðist
##itta
##ety
##raff
##ggjandi
##kkia
menti
mennast
mennist
havs
##elti
##elley
##arium
##nafrøði
##andid
samla
samskip
samfeløg
##ssund
##ssløg
##ssáttmála
útrok
soppar
##jørna
##ulg
##ulvur
##ulóg
##ultan
upphædd
##egon
##egði
fólkakirkjuni
tíverri
##slit
##slub
##tiárunum
árligu
##istanum
##inas
1866
1884
1821
1851
1872
1844
1886
1814
##leiðarar
##ógvin
##ugar
elskar
brent
brúgvin
##illy
##esh
trans
trok
tróta
trompet
##íka
##íkini
##íkja
##úgvuni
##olm
##olen
aln
alg
alid
aldar
aluminium
Hannah
##ansur
##ansæð
##emort
1560
1790
1788
1789
##øva
##ttaberg
flam
flógv
flugur
##roe
framferð
segl
stórm
flekk
Føroyab
Føroyski
býarm
spe
spøl
##ipar
feitur
##uty
##asund
##aseð
##asjúk
innflyt
heimast
##usu
##usett
##allurin
##artíðini
lek
leingist
##ktis
##ktari
Stan
Stor
Stjørn
Stock
Staðið
hesuferð
tíðarb
##búgvin
##búgvum
##uttu
##varandi
##varbóndin
afturvaldur
##óðskapar
undirvíst
undirgrund
forðing
forvit
fornnor
armar
##hew
##heil
ferðaleið
Heils
Hebre
Hettar
##ararbeiði
dagarnar
málmaður
líður
kanningum
##uðul
##ísur
blíð
blokk
blindur
blivnir
##orðum
yvirræði
millumbilum
sjómenn
sjóvegis
##fólkum
##okka
##okkur
samanbera
##indir
sví
svongd
##sma
##smakk
##smyndir
vitað
vitni
vitjað
##brandt
ort
orði
størstur
kommiss
##ýrunum
kvart
##adsj
herv
hermaður
heryvir
herovasti
smyr
smág
smala
smakka
metrop
berum
berjal
##idon
##ici
##ico
spæli
spælari
##opard
ymsa
##okam
##usson
##floy
##skapað
arbeiðnum
arbeiðsloysið
týdd
týddar
skriving
skrivaðir
##apa
##apu
endans
endaligu
Haram
##jarð
Frím
Fróðskapar
sjálvbod
skipunum
skipaferð
##ardóm
búnað
búmerk
##manuel
##upláss
nakin
nakrari
leikinum
Menila
strond
strongd
##ustól
##ustýri
##ustjóri
løgum
løgmann
løgfrøði
##førar
##førslu
ferjur
##sher
##shavn
niðurbr
niðurlagt
##arke
##arkollvelting
heilan
slit
slús
slovak
teknar
##pass
##støðuna
Samlaða
staðfestur
rættuliga
rættvísi
handaðar
handtikin
valda
sangarar
sangarum
##óttur
##svan
##svik
##svimjing
laga
lagrað
##framfør
sjónband
##abil
##aborg
góðsku
góðgæti
liðinum
partarnar
##málaráðnum
manningin
manningini
virkinum
virknar
##spor
##speg
tónleikas
ungt
ungir
høgdir
##átar
##átan
dek
dep
##ptun
Chic
##ahá
##ahand
##afi
##afug
##afeløg
Brun
Breið
Brøð
Bronsu
vínið
limalondunum
klø
kloy
klip
##dekk
##immer
##ekwondo
##maskin
##ætlanum
økist
Leona
norrønu
ríkum
kont
konuni
##grøn
##grunnin
Gran
Grene
##kveggj
##kvæmi
##ferðin
##ferðslu
útgeva
Alba
Alger
ávegis
##edr
##iónirnar
hækka
##ylon
##arbýur
##eypið
vísur
##ynor
vegum
##sbyr
##sburg
drív
dramat
drykkur
líkt
brúnt
brúnna
hjálond
Krak
Krún
Suðurkorea
Suðurstreymoyar
myndevni
førast
offr
kommunist
kommunistiska
programm
Soay
fiskim
fiskaðu
fótin
hugsjón
##ukonsert
##veitin
brúkarum
loysti
loysn
##act
##ráðingar
##leikaranum
støðin
støðuni
Landssjúkrahús
ætlar
stjórnaði
reglurnar
reglugerð
snjó
snæl
geislavirk
hóv
norðast
norðasta
norðmonnum
pláturnar
##ante
##obur
##ellu
##ellane
##prent
##prýði
##frøðini
##frøðina
trýsti
trýggjar
trýstir
barni
bardust
konginum
Norðurhøv
Norðurcarolina
lógum
##ertlar
yrkja
yrkingum
##sreg
##sríkinum
Theatre
skrivaðar
munin
tjóðin
tjóðarf
politiskar
politiski
##beini
amerikanskir
amerikanskar
anda
andingar
andlitið
Neptun
ovasti
##bury
gullnál
persónum
##gjørt
##leyvan
Tórur
Tórsg
Tórgarð
reinum
##owe
##owl
mentanarlív
##harraf
stóðst
víðk
tíðarritið
##orkan
Vágar
ættum
ættbólkar
norðurkore
gifti
skrúð
innihaldið
vaksnir
vaksnamann
handilsb
Andras
markirnar
dystum
fylt
##essen
Flor
framleiðsluna
lutvís
syft
synum
synt
minnist
stovnanina
ráddu
Oregon
svaraðu
tingsess
undantøk
bilinum
lesi
vøran
stuðlar
stuðlaðu
skaldskap
skaldskapur
søguligu
Jóla
statin
statum
statirnir
Marx
Marit
Marath
Marjun
sýndi
olympisku
støddin
##evnandi
kjøl
ídnaðin
ídnaðarkollveltingin
litin
litrík
##sarbeið
##eparti
skógum
gudinna
##hail
##sløgunum
eldru
See
Sej
Sept
Seahaw
novembur
##linginum
##onservativ
sterku
áhugaleik
##oriar
Guinea
##skúlalær
stríði
##reglum
fyritøku
flogv
betong
##oftast
leysla
sendin
sendingin
fíggjarmál
fíggjarligu
fíggjarlóg
skilir
##eymurin
fullar
hendingarnar
sink
fylgi
fylgjum
Deuts
aðals
taekwondo
Árini
landbúnaður
Norðari
Norðoya
Norðbergs
kortinum
løgtingslimir
næturnar
persónligum
That
reiðari
##oux
Allur
upplýsa
Reu
Rebe
hoyrdist
lættir
##gangur
##enjing
##skarandi
ræna
rænt
hitta
##sfjørð
endurspeg
Miðeystri
akur
akadem
steinurin
menniskjan
flaggi
noyddust
##sfólkini
##bókini
1847
borgarliga
borgarstjór
familj
##here
trúð
tveitt
tveitti
flýdd
blaðstjóri
sólskin
heitasta
minkaður
fastar
Eysturoynni
Kappingarnar
dýrd
hálsh
lágum
broyttu
upprunafólkið
landslutir
landslutirnir
landsstýriskvinna
Vanuatu
##breytini
Shak
Shelley
ljóðb
ljóðar
##jørðini
##merkt
Oliver
##sdal
heiðraður
Main
Maskin
Ongan
Onglands
eggvaksin
Sjómans
Sjóvarbóndin
veruligt
frælst
hæddin
Mohammed
útgávum
góvust
koyrandi
skotum
keypir
kunning
kunngerð
kunnleika
tordi
1859
Annika
prestarnir
Høgra
indián
blóðsuk
fátæku
bóndunum
##issjúk
1837
1838
almenningin
framleiddu
Løgtingsins
Kongurin
Kongress
byggingini
harðast
Blood
Russlands
Ungdom
koloni
Egil
Jákupi
Nice
dámd
dámdu
dámdur
útvarpið
Mex
oper
opera
##gevingin
dómin
gudd
jólag
Framleið
skráset
skráseta
Georgius
djórum
fangað
reindýr
slíka
slíkan
felagsskapin
##ockey
##innumál
einaræðis
fjórði
sáttmálar
skorin
mentamálum
býarstat
býarpør
evropearar
Akra
Akadem
Vegg
dansur
dansað
fimt
fimleiki
føddir
##algimenni
krónan
Húsavík
Serbia
Tjóðar
rakett
tungur
tunglyndi
ókend
##agram
aldrin
álopin
Bókstav
korum
korrup
vápna
lokalar
lokalu
spurdu
vandan
##kapping
##kappingina
umtókta
báðumegin
bora
##amannin
navna
##achusett
##drongur
einstakar
falli
botninum
bardagar
kreativ
postinum
postverkinum
væta
fótbóltsleikari
fótbóltsleikarar
rúmdini
klassiska
klassiskum
konsertferð
Hvat
Hvønn
abori
##alisma
skatti
grannalond
grannalagnum
standar
skelini
##burðin
##valdið
##skrý
sosialar
trúgvandi
hugsandi
Barks
Barcel
inntøkurnar
ferðavinnuna
maskinurnar
maskinbyr
greinin
greinarnar
Peru
tørvurin
útflutninginum
blóma
skipanina
hvítari
goymd
goymslur
seyðinum
jarnbreytast
bíta
hernaðarliga
hernaðarstøð
heilsuverkið
Christiansen
sjálvstøðuga
Anton
Musharraf
búskapi
##framleiðslan
viðurkend
djúpir
samkyndum
Malmö
Nikos
meinlík
##hvíta
muslimska
muslimskum
Niðurset
Stadion
gulur
rúsevn
rúsdrekk
sluppini
##ologiska
slætti
slættar
miðalhitin
Edin
Edmund
avgerðin
træskur
sveimar
helmingin
jød
sandinum
##inois
svenskum
smærru
turkiskum
veðurlagi
privata
Stewart
##spælið
stjórnarskipanin
Henri
høsnar
##borin
##alendarin
heitti
turrur
Alec
Aleks
Lucy
grasið
jólum
jólini
avtala
Monica
Monroe
Tíðin
italska
italskum
frálæru
fyrisiting
sjúkrahúsi
sjúkrahúsið
kunngjørd
Eyðbjørn
Finnland
Hugo
Pictur
grasl
tunnur
tunnil
##høvundur
prógvað
Fólkaflokkinum
Fiskim
Fiskurin
Lista
Royal
Roynt
horv
hormon
lova
##skriftini
helli
hellum
veingja
veingirnar
Skipasmiðju
bókstavum
fiskivinnuni
##frøðiligar
Walk
hornini
show
shogun
hermenninir
fjølbroyt
Jehova
Markn
##uskel
##uppskotið
##hildin
##brigd
norðurlendskum
bóltin
##areing
##alívinum
streymurin
klæðini
regluligt
Columbia
Drel
Peppers
Víking
moldin
sannfør
sannføra
tokið
stevndi
tryggari
tvíbý
tvífald
bláum
veittu
Fried
Rembrandt
Sørvág
netinum
netverk
##ráði
##stólurin
fólkaræðið
grønt
##felagsskapurin
Fólkating
Angel
Mikla
pílag
tropunum
gráur
##ognkelsi
vínber
listafólkunum
starvsfólkunum
minnisvarði
tjúkkar
Kunst
Staturin
nevndarformaður
Aftrat
Fuglø
Karsten
gøtum
kurvar
møti
##unktur
einkja
yvirlitinum
tekstum
mótmæli
Burtur
Burma
Hotellið
Lærdi
McK
Persónar
Silke
Yvirlit
Yvirgang
kenslum
punktum
røkti
ullina
villini
uppílegging
##ublic
plátufelagið
plátufelagnum
vinnulívið
vinnulívinum
Streymoy
professionellum
professionellur
Rættará
garðinum
garðarnir
##svarandi
einfalda
samkomu
brennievni
smíðað
niðursetumenn
sjúkueyðkenni
Manningin
Mannarætt
adress
sitipláss
vird
virða
virus
##onskv
framsýningum
Afturfyri
Piemont
Vegna
Vegas
tilnevningar
trummu
sermerktu
politikarar
hálvtannað
hjálparfólk
hálsurin
Jørgeni
Javnaðarflokkurin
Kjøt
kastar
ásettar
##weet
prísurin
stakríki
stakríkið
Castle
Ferdin
Facebook
Kagg
bakteriur
dýpið
gitnast
írska
ónøgd
##issión
Hektori
kvæðum
##streymoy
mannarættindini
dreingjum
tænastuvinnuni
væntað
næmingarnir
Lívið
dómarar
eigarin
kalendaranum
súmbol
ísinum
ísurin
##periment
fólkavald
##olitan
vørumerki
beiggjar
steðgað
steðgaði
katólska
systkina
Elizabeth
Region
krimin
lidnan
tenninar
túrin
eintøkum
trívst
trívist
savnaðust
Sovjetsamveldið
Saltsil
bundna
himmals
japanska
kjaftin
læs
viðgjørt
gerandisd
verkætlanini
áhugamálini
fullkomna
Akillev
Claus
Dreams
Holland
Ludvík
Reinert
Virgili
firðir
reistur
##plantur
verðina
framúrskarandi
heimsparti
grundlógini
Landsstýrismaðurin
Muhammed
Tinghús
Tinganesi
Toftum
gávurnar
kilo
nørast
plagdu
##vøllur
##vøllinum
brekað
leivdirnar
Franklin
leikstjórnaði
Brússel
leyvtrø
framleiddar
lyfta
virðislønirnar
Center
sagv
sunnaru
ósemjur
##bæra
##panel
##punktið
avrættað
avrættaður
##sliðnum
landaøki
landnyrðingspartinum
partapen
sýslumaður
Strandfara
minniluta
vandamik
átrúnaðir
sóknarstýri
tilvildarliga
Báturin
Ronnie
hatta
kultur
kulda
##heyggj
stjól
árstíðunum
##aseball
keyptu
oyðimørkini
Girl
Hetlandi
Kollfjar
Ovast
Planet
gestir
kolldøm
ræðast
torginum
ólógligt
bringuni
trongum
spjatt
##uspál
arvaði
týskarar
Fríðrikur
láglendið
European
Sjónvarpsrøðin
hátíðarhaldi
Effodeildini
fartelefonum
Goog
Omaná
Omanfyri
Selma
himli
ávaringar
eftirløn
sparingar
føturnir
jarðskjálvta
jarðskjálvtar
Black
Svarta
Wilhelm
kápuni
rudd
tilveru
Nordic
matstova
súkklukapping
neytahald
Hørg
Mississippi
Orkn
bjart
rímiliga
single
savnarar
Ímeðan
Ímillum
ítrótta
##sdagar
##blaðnum
##plátur
umrødd
umrøddur
trælahald
landnámstíð
fjaðrar
##sniglar
varðveitslu
Froðba
biografunum
Restin
Volga
ivast
mælti
morgni
meistarar
vallutt
ytst
Ídnaðurin
íbúðar
útdeyð
dagførd
Harriet
Harrison
drúgvar
undankapp
plátus
grasfløtunum
Baby
Genè
Gandhi
Vigdís
døgunum
gjógvin
mýrunum
##tiknar
##warts
##skjóting
tilflytarar
tilflytarum
umtalað
frásøgn
landspartar
Landslut
vinkulin
stavraðnum
námsvinnu
morreyð
seniormet
Bíblian
Bíbliuni
Basel
Business
Power
brimi
ovaru
ágangi
##nikov
##arbeiðið
##alógin
fortaldi
myndprýtt
Elisabeth
eygleiða
Lági
Nobel
Sisimi
Sigurð
Titan
bensin
fúti
sinnissjúk
##nøgdin
útlát
áratíggju
##floksins
Skopun
útgávurnar
Alfred
fótbóltskapping
orkukelda
vesturlendskum
Afrikanska
frumsýndur
ríkisborgarar
Slovakia
eydnuna
Lopranseiði
afroamerikanarar
Københavns
Boldklub
Cape
Dysturin
Folkeparti
Gylta
billiónir
filos
fikti
Ítróttar
inniróðri
vitaminirnar
vakrastu
ungmannafelagið
Leonardo
fríggjadag
Johannessen
Týdningarmesta
##germansku
dómsnevnd
Faustulos
Odyssevs
Søldarfirði
Dávid
Glyv
Hugtakið
Halgir
Lukas
Lýðveldið
Navnorð
SEV
lestrar
nøgdir
##rieru
tilfeingið
kontrakt
Almenna
barndóm
mangrov
lufttrýst
Absalon
gistingarhús
Professionelt
##rasamkoman
ANC
Hæddin
Kenja
Massachusett
Weihe
gjónna
hollend
sukse
##eðurlag
##amydia
##avørður
havumhvørvinum
heimsumfatandi
heimbygdini
strateg
Býarparturin
høvuðspersón
##afjaðrarnar
Norðurírlandi
##achelor
Stefani
protestant
dreingjalið
týdningarmiklastu
steyrrætt
Beinisvør
Cliff
Finalan
HIV
Manson
Súluskerið
Tisamenos
Tommy
Voldemort
Zidane
hungri
karmur
sørt
tyngri
##hægsta
##hýsis
##meldingar
fruktab
sameina
samsvari
veksa
Skúgvoy
prerian
burðardygg
Trygv
Brøndby
klombrum
regntíðini
Norðurnoregi
amerikanskan
hjálparvenjari
trúarbólkar
Erlendur
Isaksen
katolikkar
Kontinentallið
Kjølbro
Khalkis
pálmabl
Høvuðssætið
Rithøvundafelag
Sibiria
Aarhus
BTÚ
Bænadikt
Cecilia
Epiros
Hogwarts
Kevin
Miriam
Namibia
Vivino
Viderø
iTunes
íbugvar
ólavsøk
avvarðandi
framferðarh
Føroyabanka
Hebreara
kommisser
Frímerk
Menilaos
Algeria
Seahawks
Barcelona
Sisimiut
Massachusetts
05
033
399
394
375
395
322
326
315
420
421
478
430
550
527
660
787
860
872
995
Að
AM
Aal
Aber
Aud
Area
AID
BB
Boy
Bólk
Bag
Bet
Ball
Bent
Blan
Bull
Besti
Back
Bummull
Birg
Bowl
CT
Cun
Cart
Cass
Cyc
Dj
Dá
Din
Dyr
Dunnu
Dala
Day
Die
Dentur
Dávur
Dennis
Ey
Eing
Enni
Esp
Erik
Eyk
Ege
Fun
Fit
Fast
Fak
Farv
Fjar
Famil
Fiskur
Fish
FSF
Fogh
GM
GP
Git
Gong
Gist
Gøt
Gamm
Gay
Gentur
Gjúk
Glad
Golf
Gørðunum
Hir
Him
Hey
Hus
Happ
Hers
Haf
Hve
Hunt
Heiður
Hyd
Harafturímóti
Haðani
If
IR
IV
Int
Iron
Ibra
Ji
Jap
Jud
Jung
Jút
Jason
Jemen
Ky
Kis
Kál
Kær
Key
Kill
Kok
Kup
Kaf
Kass
Kash
Kines
Knapp
Káta
Keys
Kemur
Kilda
Kroppurin
Ler
Ljó
Lus
Link
Lógg
Leyg
Løkk
Mó
Mur
Meir
Mein
Mek
Mikin
Mess
Motor
Morgun
Memp
Múrurin
NR
Nan
Nat
Net
Nøt
Nost
Nass
Nummar
Night
Our
Okk
Okt
Oyð
PA
Pur
Por
Pot
Pala
Palin
Rum
Rør
Ról
Rit
Rak
Res
Rót
Rok
Rank
Row
Rás
Ríkinum
Rain
Rights
Sø
Sé
SU
Sið
Sús
Sus
Sild
Sad
Slagið
Spa
Sval
Say
Sha
Satur
Salis
Sunda
Sendingin
Sweet
Toy
Tik
Tøk
Till
Tas
Top
Tyl
Tow
Tíggju
Tølini
Tambar
U21
VH
Vat
Veið
Viv
Vón
Vín
Viku
Virksemi
Venjari
Wi
Wh
Win
Wagn
Water
WOS
Yn
Yt
Zh
ari
ani
andi
bal
bald
bek
barb
baks
bakað
bundu
bris
bylg
biðin
bachelor
ca
com
cyst
dam
dik
dev
driv
dvør
dust
dalin
dokt
danskari
døkk
dønum
dvørg
eið
esk
eik
ekt
fitt
flag
fja
fús
finnu
fundar
fagr
fjós
fílur
føllum
gen
geg
gingin
gitið
glit
gøtur
gørðum
garði
gista
givnir
hu
hør
hyr
hov
hýr
høll
hala
hoyggj
hash
høli
høllini
hoh
hættis
it
im
itið
imm
jonir
kvar
kálv
kýr
kley
kundar
kola
kúlu
køldum
kellingin
kandid
lam
lyg
lundi
likk
mp
mur
mak
mart
munnu
mod
mess
mundu
midd
móri
møttu
mínum
na
ner
nikk
nøvnum
nomið
otta
oks
osmann
pak
pist
pík
pap
pynt
petti
rum
ríð
rot
runnu
roð
rúgva
róður
rank
rib
róðurin
rulla
runnum
sc
sim
sans
serk
sanna
sála
sølum
tið
tam
toy
tanga
tummar
taks
tarm
tonn
tola
tamar
up
uran
vol
vov
vøl
wor
wild
yvirk
Átta
Ákær
Ågot
Ígjøgnum
Íslend
Óð
átøk
áarm
ævis
æruna
íle
íalt
íkomin
íverkset
óð
óført
óðal
ójavnt
óansæð
##ej
##eum
##etta
##eare
##rey
##runi
##raðist
##rún
##ns
##nal
##nig
##nat
##jn
##jö
##jarnir
##jub
##jararnir
##ject
##ópar
##ónirnar
##óskandi
##ssk
##sinum
##sstøð
##sstr
##smark
##sfj
##sberg
##sleikarar
##yom
##ysi
##tenn
##tøl
##túsund
##tykt
##tennis
##tónleiki
##táttað
##oo
##oini
##out
##orist
##øs
##kir
##ken
##kurin
##kol
##keyp
##kani
##kins
##kóp
##dj
##dali
##deyða
##datter
##uest
##uber
##uce
##gá
##grip
##liv
##lov
##los
##lyn
##lingi
##lýs
##lýst
##ljós
##vandi
##veið
##væl
##via
##vind
##vestur
##venjari
##hl
##há
##hing
##his
##him
##høg
##hall
##haga
##hjá
##hone
##hjarta
##xi
##xt
##ýstur
##ýðing
##fóður
##falon
##my
##mini
##mat
##muni
##mos
##móður
##minal
##mørk
##motor
##morgun
##ánað
##áki
##æll
##con
##cca
##celand
##bal
##bandi
##bes
##bust
##bónd
##bour
##bukk
##børnum
##banka
##back
##baki
##bjarga
##por
##pro
##park
##palli
##petti
##zo
##zation
##wen
##wis
##west
##worth
##ät
##CC
##CA
##NG
##ém
##IG
##åd
##LO
##LA
##BS
##ür
##ère
##inin
##inta
##inus
##insi
##inavnið
##inesi
##innarar
##arið
##aní
##anja
##ance
##anøvn
##umma
##umboð
##umpar
##ira
##stel
##staði
##stúk
##stalið
##stirnir
##stoft
##erdi
##erud
##eraðu
##ilandi
##ilyn
##aðin
##aðal
##ttalandi
##eni
##ennd
##ennum
##enskt
##unami
##uncil
##unzel
atburð
atkomu
atløgu
##alit
##alog
##alæk
##alín
##alitet
##skon
##skógv
##skja
##skera
##skort
##skivatn
##skolen
##rick
##onis
##onta
hebre
##ørnar
##annin
##annar
##annan
##amið
##amonnum
##amonnunum
stk
standi
stol
stinn
stavn
start
styt
staddur
stevnur
##diskum
##inist
##leum
##lege
##leif
##levs
##levard
avn
avbyrgd
avvaksin
avgera
avbera
viðarl
viðtikin
varnaðist
##igan
##lain
##laware
tilhald
tiltikin
tiltik
tilburður
##orar
##aval
##avís
##avatn
##avegin
##avmark
##avrik
##avinnu
##aveldi
verma
verjan
##ison
ummál
umstøðum
umheiminum
umdømi
umsóknir
umsíðir
tetr
tema
teleg
skam
skíð
skund
skøl
skansi
skínur
einir
einast
eintal
einkar
einmans
freg
frøð
frans
fransk
franskur
frætta
fronsk
##ólja
##andið
##andri
##ito
##itandi
##itage
##nny
##iko
##ikararnir
##imet
##gvin
##ppið
fyritreyt
##atir
##atunum
##ates
##astur
##astarv
##narveður
sell
sevi
sekur
##ako
##akong
##akort
##akongur
##akurt
##akota
##akropp
##akrepp
##álitið
##álaráðnum
1922
1934
1913
##íðuni
##agóð
##agørðunum
##itter
##light
##etið
##eter
##etning
##niska
##niver
##nummar
##ggjá
mentur
##ely
##elm
##jóla
##jónum
##arib
##nad
##ever
##evsi
##evrope
##endamálið
##arafelagið
##estrið
samsý
samtak
samtíðar
samleiki
samdust
samskiftið
sameind
##ssynning
útskift
útlit
útkomin
útheimin
solo
##ulunda
uppb
uppskrift
uppslag
uppskriftir
##egn
##ego
##egal
fólkabólk
fráboð
frásagnir
harrad
##slunum
##tia
##tier
ársg
ársbyr
eitthvørt
##eiðinum
##økin
##økini
##øklut
##anger
##istin
##istar
##istum
##ingarstov
1863
1862
1867
##leiða
##leiðin
##leiðingar
##ugan
elit
elska
elverk
brutt
brendu
##illu
##illur
##esus
##esue
troyar
troya
traktor
trygt
##íku
##íkindi
##aldri
##olution
##skassan
ali
alp
landnyr
landspartinum
landskassan
Hannib
##duvík
##dukkur
##emo
1566
##leikirnir
##leiklist
1799
1793
1725
1765
1797
1714
##øvin
ták
flúgvandi
fløsk
##roc
##rob
1673
framdur
framstig
framburði
##unnan
##reinir
stórbýur
stórslig
flett
##durnar
Føroyinga
býarbók
##ættind
spj
speg
spøk
spurt
##ovo
##overn
##mars
##mart
feskum
feitti
##utól
##utanum
##asu
##asíðan
##asjón
##asamband
inná
innast
innflutning
innfly
innflutt
innangarðs
##ennini
heimins
heimlandinum
heimshand
heimagang
nýst
nýgrik
##usher
##uspar
##usaman
##irib
sjald
sjok
##allin
##allinum
##osu
##osin
##osom
##osfat
##artíð
##artónleik
leggjast
gron
greiður
grágr
Stars
Stødd
Stýri
Stevn
Storm
tíðindum
##ddafi
hevnd
hevndi
høvundar
##áttin
##varnar
afturla
aftureftir
afturgongd
afturbein
afturímóti
##frum
##fríður
##ots
##oten
undirví
undirskriftir
særdi
særdu
forlag
formar
formann
forberg
forkirkj
formanni
forstaðir
tvung
##ølla
##øldar
arg
arm
arkt
bygningum
bygningur
##virði
##heft
##heils
##hello
Heina
Heath
##ildar
##berar
##beretning
dagarnir
dagsins
hvørjir
mált
málar
máldur
málningurin
línu
kanningini
##ningunum
##ksvík
##ísar
krý
kroy
krógv
krans
kroyst
blý
blóðr
blýggj
##fepur
##feingis
yvirum
sjóver
##okkar
##arvør
veidd
veiddu
seinri
fjál
svull
svín
svíkja
fórst
##bræð
ord
##etty
størv
##ntgen
##ogan
##ogni
##ognum
##ýrur
kvør
kvikur
kvæða
##adag
##adóttir
hermonnunum
smur
smir
smal
smør
smát
smølum
##idømið
##opur
ymis
ymsan
##okta
##flø
vælk
##skapið
arbeiðsloysi
týskir
týpu
bygda
##apur
##aplá
##apark
##apláss
##apolis
##jórið
##lanta
endað
ending
Harrin
##yndugleikarnir
##jaran
skipaða
skipasmið
skipahavn
##ardagar
búnytt
##mansson
##luti
##luta
##øller
##upunktur
talaði
##eðg
vakstr
##úrdráttir
leikandi
leiktu
mesti
##kab
serstøðu
serfrøðingar
serbar
stremb
##eyðir
##ustýrið
##ustaðni
##udal
##tøkunum
stovuna
stovnin
##trað
##øtn
##øtuna
##øtrar
gerning
##førir
byrð
feriu
##shug
Skil
Skarð
Skandinav
líva
lívstíð
lívbjarga
kappingarnar
##fyritøku
##fyritøkan
##fyribrigdi
##fyritøka
sigarett
##atnið
##arsp
sløk
slang
slott
uttanífrá
teksti
tekningum
partt
parlag
##vertur
##verju
Samk
##arnið
##arner
prinsi
staðar
Norma
rættir
##arðin
miðald
miðlunum
miðlarnir
handa
##chu
sangar
##sveld
##svegi
##sverkið
##svegur
Trond
Træla
##ubý
livi
sjónveik
hinari
##eldan
##talan
##talur
góðseig
liðu
##málmi
mannaf
navng
navnfram
virkandi
langari
##spir
##spøl
##speki
tónleikinum
tónleikaf
tónleikatil
vilt
bókar
bókasavn
doyp
høgdu
høgdur
høgrum
egnari
##aliðið
húsdjór
húsmóðir
høvuðsgr
høvuðsveg
defin
december
Cham
Chili
Chris
kirkjunum
kirkjumál
##ahav
##ahald
##ahøv
Bron
Brævið
Brestis
Brestir
fyrrenn
roykt
##nutur
klini
klødd
klørnar
##staðið
bólkað
bólkarnir
##ætinum
##sambandi
Leopard
Lewis
ríkir
ríkjum
##rikan
leiðin
leiðara
leiðina
leiðarar
leiðsluni
Job
bley
konur
konst
kontinent
##ápur
##æðinum
##æðast
##æðnum
##grundin
##grýt
##grunnurin
Arara
Arena
Aruba
mongdum
flokkarnar
509
evnis
##ollen
##eyton
hvílir
Grím
Greta
##kvinnu
Almenn
Almanna
filmsbrot
##eda
beinavegin
Avtalan
##ylor
Dante
Fólkaf
Fólkahá
##arbú
##arbygd
##ynstur
##arlær
vegleiðing
vegasamband
##sbotni
##lendsku
dró
dren
líkini
líkning
lærur
lærir
lærda
lærdóm
##iligi
mass
##ungum
starvaðust
brúð
brúnur
skjótir
hjálondini
Kræk
Krák
Kríggj
Kríg
Suðuri
Suðurk
##boðið
##boðini
kvinnudeild
##supp
##amálaráðharrin
førdur
##húsi
kommununum
kommunusaman
produc
fiskir
fiskinum
fótbóltur
hugburðurin
##uket
loyndum
##aclan
broyt
Fleming
kendasti
Eftirsum
##leikarunum
under
undirkja
støðið
støðga
##oda
##oddur
stjórnir
401
greip
velið
veljarunum
##skiftinum
eiturkopp
stuttar
stuttleik
stuttsøgum
stuttbana
Here
Heri
Herurin
Heritage
valini
valla
valstríðnum
sjúkrar
sjúkling
sník
øldirnar
fyrstan
hóskar
norðasti
plátum
plágað
##víg
##víni
##anto
##antum
summarmála
summarfrí
##ellig
##prestur
##frøðis
trýtur
bardist
grundaði
grundaður
grundlegði
Viðar
Viðhvørt
kongress
607
náttur
Norðuramerika
Norðurlendska
Norðurnigeria
møguleikarnar
##býtið
maturin
matarh
materi
matstovu
yrkingin
yrkingarnar
##srætt
##srøðini
##øldið
Thess
allarhel
slekt
verkætlanum
soninum
Seint
Seinast
føti
munkar
tjóðveldi
vinmenn
vinalag
politiskan
##beiggi
andstøðan
Need
ovasta
##yrkis
gullið
borgir
##gjørd
Atli
Atkv
##leysa
##leysar
fólkatættleikin
Tórir
realist
reaktión
selur
Johnny
##settir
##rasund
Evvia
víðf
víðar
víðka
víðgongd
903
drekki
drekin
ógvis
Vágsvegi
gifta
skrú
brúktir
boðskap
Andalus
hálvum
hálvari
marknaður
álman
álitið
álíkavæl
fremri
fótbóltssamband
fylk
skiftu
tættar
##essir
##essee
Flam
Floks
bønar
bøndurnar
##ríkini
##ríkjunum
framleiðsl
Stórt
Spe
Sprot
Spísk
##úts
virðið
virðir
virðini
##ritik
peningur
pengum
##bach
turki
Ella
Elsta
Elia
Elton
##tóku
telen
teljast
##ations
##astaðnis
rós
rósti
mettar
Ormin
tingl
tingmaður
leguna
##vagg
fjallalend
søguligar
Form
farm
mótstøð
##festing
##skij
kavaði
##vísing
Havnina
Marg
Marilyn
jarðað
jarðarinnar
kný
knýta
knýtir
sýld
sýndur
sýnist
##partinum
leiklutinum
meginøkið
##arhalgimenni
##eriu
støddfrøði
kjans
kjálk
flyti
Teimum
ídnaðurin
sløgunum
##heims
##heimur
lágv
láta
gudinum
##ief
deyði
eldinum
eldra
Sean
Seinnu
ávirkast
áhugi
##snevndini
##orid
##orial
##rabbi
Gudi
Guide
bátunum
bátarnar
stríðsv
flota
flogførum
flogskipari
deildum
betraði
umboðað
einstøk
einstakt
javnrætt
javnbjóð
javnrættindi
leysur
sendingarnar
##cean
##ratión
skilt
skilmark
mánaðarl
sjónleikinum
Kirkjuvatn
Uppskotið
fulltíðar
upprunaligi
viks
fjølbygd
fjølgast
fylgjast
ferðafólkatalið
Debes
Delaware
aðalin
ringast
Norðast
Norðanfyri
Norðberg
eygunum
mismun
flestir
flestøll
løgtingi
løgtingslimum
persónligt
rún
rúnar
reiðiliga
reiðaríið
##oui
Allan
Hósvík
Pálmap
##gonguna
upplýst
trupulleikin
##ossa
friðarsam
breiðar
breiðast
orkaði
orkuspar
almennir
Strondum
337
hittust
endurre
endurstov
Miðvági
Miðevropa
súkkling
##sjóvar
fruktar
høvdingur
akførum
akupunktur
Nýtt
flak
##sitingar
Tróndarson
418
noyðist
oktobur
##deildir
##deildunum
Svend
roknast
##boði
##bókagr
familja
familjum
trúnni
trúbót
vatng
sólpanel
842
klárir
##eftirlit
##yttar
samfelagi
fólkaskúlanum
fólkasløgum
býttar
klaksvík
##havi
##havandi
##mælt
stýrdu
stýrdur
Sande
Sandurin
dýrið
inspir
##uvald
Vanlukk
kunoyingar
reyðir
reyðbrúnur
reyðhær
Shiva
ljóðið
ljóðførini
bretskum
samstarvað
##ilipp
stavsetingar
712
##garðurin
heiðalendi
grønu
Maur
eggi
Sigmundar
Mario
Marius
Marijuana
Sjók
Sjógv
búsitandi
veruligu
frælsan
1812
1816
hæddini
ljósagr
legðist
Jógvans
Mountain
Høvuðsbýurin
Høvuðsendamálið
##veldini
##father
Erhard
Ernst
koyrd
kristnari
##trúi
##trúnaður
svimjari
svimjiland
Ólav
##gevur
##gebra
##gongdina
##eltoft
1856
1858
##eistaraskapurin
Anne
Annan
nøkulunda
rithøvundurin
presti
prestagarð
lýsingum
indianararnir
blóðið
blóðug
vístir
fátækadømi
bónda
bóndan
##isse
1839
almennan
ætlanini
Løgtingslóg
Konge
tænasta
harðskapur
Unga
baki
veiðim
##føddu
##føris
føroyingarnir
myndugleikarnar
Bermud
Films
Nicol
Niclas
Nicola
barnabøkur
reyst
##jaldið
##gáva
peningastov
Vestari
Vestmann
savnaðar
savnaði
Týsklands
Anja
Ankus
guvar
Framman
8000
dyrkar
fangaður
##illiard
slíkar
felagsskapum
festið
Útgávan
##parti
sáttmáli
sáttmálalondunum
Freddy
Freeman
##ingaøld
mentanum
evropeiska
Veingirnir
dansi
fimti
Eineiuni
FMA
Service
Tjóðart
Tjóðveldið
raktur
tungt
ókendum
##virkandi
frumskóg
seym
útlendsk
bókmentavirðisløn
álopi
álopini
Cola
Cook
korni
kynsbú
vápnum
Fjað
##lettum
##lettir
spurninginum
sjónvarpsrøðunum
tjen
umtókti
skjálv
luftdálk
##blómur
Leikunum
Leikarar
einstaklingum
venjarar
aðalskrivari
postalín
##umbus
rúmd
Promen
Vermont
abstr
##jetnames
skattatr
grannalondini
tvørmát
##sparturin
virðislønini
bátab
Amerikanski
Grikkar
##oca
sosialt
sosialdemokrat
hugsanum
Hanoi
rørslur
inntøkuk
ferðavinn
ferðavinna
ferðavinnumál
maskinu
greinunum
mentanarligu
úrslitini
Abd
Abbi
tørvi
tørvin
##ídnaðin
blómum
blómandi
blómaði
##byrgdina
Innlendismál
pátrúgv
##lywood
seyðin
mannaættini
víddin
víddini
Tailand
Taylor
bílig
templum
Christie
sunnanmenninir
Antin
Ingvar
rygginum
##stirættur
##ladal
búskapurin
búskaparv
Arbeiði
Arbeiðara
Grønlands
viðurkendur
djúpasta
samkyndur
Torstein
fakfelagið
fuglurin
fuglarnir
kostnaðar
meint
kappingarárið
Manchester
ProT
Stay
gular
##filmur
umfata
umfataði
##smálum
breiddi
vælumtóktar
jólabók
Mangar
Mangan
Nigerá
sandin
svensk
svensku
búskaparlig
upplýsing
Vesturevropa
myrkur
myrkri
myrkari
privatar
ørv
##spælari
Sims
høggur
hagan
móttók
móttikið
vinnuvegur
##umpað
Luft
grasinum
jólamaðurin
system
víking
víkja
##ysia
##statunum
avtalur
avtalað
Venjarin
Venesia
Venesue
##amerikanska
frálær
##atrupulleikar
útróðrarb
prýði
loysingar
floksmenn
Hugs
Hugin
Ingrid
Roman
revsað
##ventist
setningar
blanding
Fólkaheils
Fiskiskap
Royndir
Vatnsoy
fíggindum
lovað
søluni
##klæði
##klorid
##hias
hellu
veingirnir
rópast
verksmiðjum
verksmiðju
7000
Hægstu
Indus
Indust
hornið
nánd
røntgen
##djórið
avmarking
byrgingina
heilsan
miðbýurin
fjølbroytta
afrikanarar
afrikanskum
Mortensens
noktar
noktað
noktandi
noktaðu
rómversku
sagnum
##bláum
semja
##tiónin
gravk
##ardagi
teldupo
róptu
Konufólk
##ectic
##ánarnir
eindin
hjúnini
streymur
streyminum
##shúsini
teknifilmar
Upprunin
fjølmiðlarnir
Oyggjaleikir
Matras
People
fjøru
moldini
pørtunum
sentr
stevið
stevna
tvíburð
Argjum
Sjónleik
Sjónleikar
Enntá
Klamydia
Sørensen
Shell
embæti
gjøll
savnast
skemti
siglt
vígdur
klokkutíð
Fólkatættleikin
vikuskifti
politikkinum
Book
Mikron
Mikhail
Magic
Matteus
Uttanfyri
fagurt
gongug
tøkn
tropiskum
##stadømi
##stadress
starvsfólkini
innihalda
oyðimerk
tjúkkir
Conta
Ketta
Kekkia
Kefalon
Kunoynni
Sangir
hótti
kapt
áskoðarar
ódnini
##løgdu
frágreiðingar
treytað
treytirnar
smitta
Eysturt
Hvít
Hákunar
eksem
kaldar
møta
##vitan
##vitandi
##stiganum
##alærari
##ridge
##amenninir
menningarlondum
menningarhjálp
yvirliva
jarðarferð
jarðarskorpuni
McB
Minst
Yvirlitið
kenslub
mýl
myrkt
oyrunum
ullin
ótil
ótoll
##house
stillisliga
hjartað
hjartanum
býráðslimur
spræ
##useum
sonevndum
álvars
##útgáva
##útgávuni
professionella
Mykinesi
Parker
Rættarmál
bindingar
ferkilomet
líðing
passar
##myndirnar
##steinum
einfald
einfalt
trælum
##ografi
Skotland
niðursetufólkini
kappróðurin
luttakarunum
skaldsøguni
aktivt
Heine
Heind
Philip
Snæ
Søgn
knappur
rossið
##kring
##alkredi
stoypt
seldar
framsýning
##veitingar
##veitsluni
Bjarna
Sony
fostr
motorsúkk
##sagnar
trummusl
leitaði
leitaðu
prentað
protok
ovurstórar
Andriasar
Litirnir
Nóllywood
Sólrun
Territ
dukkur
leypár
munnan
rótum
rótina
Ísraels
##savning
##bátar
prinsur
##ynsorð
umhvørvismálum
keisari
Menninir
banas
countr
dukkan
kenniorð
vánaligt
vánaligu
##ission
Heilt
Heilsu
kvæðini
ímynda
ímyndin
ímyndar
Leivi
dreingja
Flogfelagið
týdningarmiklar
væntaði
fyrisitingarlig
fyrisitingarligum
Richter
Times
biog
dómarunum
eigari
eyknevnið
mosk
pallinum
romant
rókurin
sessin
spíra
helvtina
stríddust
longdini
niðurlendskt
lýðveldinum
tjóðskaparligu
ræðuliga
ræðuligt
beiggi
kapitalist
Connectic
Syðra
Victor
kleyst
kleystur
tennis
íðkar
##skaldið
undirskrivaður
skipsførari
ráns
orkestrum
fruktagóðu
Háberg
Jørðini
Luther
Nadd
Wiki
bundnar
bundnir
gleð
journalistur
lastbili
áarbakka
##amarknaðinum
tilburðum
verndarhalgimenni
spreing
spretta
leigu
leigaði
tónask
tónasmiður
##edermann
verkætlanir
skriðjøk
útvarpsleikir
kynsligum
føðingardegi
Hattarvíkar
Break
Guttorm
Hollandi
Milano
Reinsar
Reindýr
hendurnar
meldað
##minniss
##plantan
##zza
sesongina
tjóðarting
tjóðartingið
Recording
urtagørðum
urtagarðar
klædnav
Academ
Kamban
Muslim
Munin
Mentamálaráðið
Oyrunum
hylur
kollveltingina
laksa
salp
salti
vakstrarhús
Brúnni
Armstrong
lyfti
Birming
Carol
Central
Northern
Vilhelm
dálking
funks
##amidu
umsita
havnabý
uppgáva
komposis
eftirkomarum
Standmynd
handverkarar
norrønum
hvítaruss
ídnaðarland
fátæks
minnilutar
vandamikla
regnskóginum
universitetinum
Brown
Eirikur
Fornfrøðingar
Kanningin
Kendasta
Tollakur
biskupur
fæið
portugisar
portugisiska
##sigurin
##littur
avmyndaður
útnyrðingspartinum
tannlækna
tannlæknast
undantikið
marknaðarføring
ídnaðarvirk
ídnaðarvirki
Turnosi
CIP
Fámara
Gaard
Gaddafi
Gomul
Ovari
Teldu
gestum
gjáum
taldu
walisiska
ólógliga
##bøndur
##espeare
##flotin
týskarin
menniskjans
Útvarpi
útfluttu
áarbakkanum
áarbakkarnar
fartelefonir
Blád
Jerry
Ríná
Two
kokuspál
sagnunum
váttað
##jørnuvík
##ulosu
alivinnan
alivinnuni
spáa
sparikass
Fríggja
Skúlabókagr
Arnbjørn
litføgrum
húðina
løgreglumaður
##eistarastevnuni
##eistarastevnan
Illa
Union
Verkætlanin
meistaraheiti
pávin
áaró
ógift
óvanliga
tilveruni
troyggju
troyggjuna
skrivstovustjóri
heilagsta
hækkaði
álitis
neytahaldi
kreppu
fongsli
fongslinum
yvirlivdu
umvælingar
Svimjifelag
Svimjihøllin
Ellis
Everett
Garðarnir
Merkur
Senegal
Síðst
Síðstu
Tjaldur
fosturs
monark
mørkini
parabilin
vátta
øvund
øvug
##ucky
##fugli
viðmerkingar
samferðslu
##varðan
málsøki
Fróðskaparsetri
Fróðskaparsetrinum
rættargang
hátíðarhaldið
##fjallinum
##snigil
Kvinnur
varðveitir
halgidagar
kurvab
Froðbiar
Kyrrahavi
Kyrrahavs
breiddin
Blues
Bayern
EFTA
Filips
Kirstin
Montana
Nyholm
Restorff
jagstr
jagstra
kamel
morgrá
súrevni
ytri
##umhvørvi
atvoldin
##ignon
skallan
skallanum
samsvarandi
upphiting
treiv
forðaði
dreymar
Socialist
valskeiðið
Tórsvøllur
veiðiferð
Stórabretland
sálarligum
##virðislønina
spælifilmum
spælifilmur
Mezentiosi
Spring
automat
dalarnar
lokka
plaser
##hálvuni
##fastir
##standandi
strekkið
avstralska
Starvsmanna
##fekti
##fektión
Trøllanesi
myndaevnið
Landslæk
nærmast
ættarbólkar
Nýggjustovu
húskið
Faroes
einstaklingakapp
ritstjórnaði
Kristinu
kjarnorkuverk
løntakarar
stórbýarøkinum
hjúnarband
mótmælisgongum
trappur
stuttsøgusavnið
Numitori
Republik
Austr
Aðalf
Bush
Crusher
Gosfjallið
Ryskivatn
Sverig
fíggjarv
goldin
órógv
##binding
##bindingar
##bogin
summari
viðgitin
skugga
skugganum
hjúnalag
brennandi
truplari
sjálvbjargnir
Skrivað
lívskorini
sloppið
Trongisvág
eyðsýnt
miseydnað
miseydnaðist
##sfilmur
samanseting
Monmouthshire
mikroskop
Silviu
Silvius
Melodifestiv
Hermionu
Apple
Biedermann
Greinarnar
Horsens
Lyngby
Nobels
Ragnhild
Sisilia
Sálar
Sálomon
Tjaldrið
bíðaðu
fegnir
nikotin
nálirnar
##rence
##riksen
frættist
##elsius
útlátið
##fyrisitingini
kirkjubók
klingruna
listamálari
ítróttargrein
globala
høvuðsmálið
Latínska
úttalað
Ferðafólk
4x100
Depilin
Gallarí
IKEA
JOTA
JOTI
Kykla
Nations
Rapunzel
Radio
Yellowstone
agn
bumbur
bantumál
dúgliga
lopið
loðin
somikið
sømdir
fløggunum
blogg
samanberingar
nevndarlimur
Landbúnaðurin
republ
Beauty
Maxim
Instagram
Tíðarritið
etniskum
Snjóhvíta
Snjóhvítu
##ágreiðing
Dalsgaard
Hongkong
Kentucky
Neistanum
Oyrasund
Ravmagn
Roger
Uranus
bukkur
koyri
íklæðast
##týsk
##føðing
##skjalasavnið
heysta
versjónini
##akyknur
tíðindaskriv
fjepparar
Skúvoy
polynes
handilsmiðdepil
hálvkúlu
fullfíggjað
súkklarum
Kappróður
Lawrence
sjónvarpsrásini
ynsktu
Hvítarussland
uttanríkispolitikk
danmarksmeistari
fátækrabýlingum
kjarnorkuvápn
Creek
Econom
Jómfrú
Kinverjar
Santorini
europe
iPhone
sensur
tsunami
##gård
##familjur
alstóran
heimskríggi
nýskapandi
yvirnatúr
endaspælið
Frælsis
talgilt
vatnorkuverk
druknaði
##ækarism
Neutronin
kjallaranum
lukku
Nikolaj
abbasonur
ísraelsfólki
vulkanskum
lærusveinunum
atkvøðugreiðslu
lomvigi
tónlistarliga
endurnýggjað
Bakkafrost
Cyrus
History
Hampshire
Jøkladal
Lady
Nimr
Othello
Punjab
Pentagon
Sokrates
Tennessee
Vøluspá
astronom
destill
gjarna
lurta
rútm
áheitan
##tænastuni
útjaðaran
landslutur
Skorheim
Trøini
dragast
droymdi
lýggjari
missión
luksus
Shanghai
Vestergaard
Musikkskúla
Schengen
Productions
útryðjuni
revsilóg
skemtirøðini
gróðrarlíkindi
Aksel
Cumber
DBU
Fíggingar
Filmarnir
Ganges
Hinumegin
Hillel
Ilionskv
Jødar
MTV
Nuuk
SMS
Wuhan
diabet
dumping
hiðani
knapt
makrel
tutsi
##firðingar
hektarar
stabbagr
algorit
undirgrundini
##adsjik
Marathon
Shakespeare
Ongantíð
blóðsukri
Egilstoft
guddóm
Akraberg
Pictures
tvífaldað
Friedrich
Silkeborg
Mannarættind
Ferdinand
Akillevsi
Virgilius
Strandfaraskipum
Kollfjarðard
Google
Genève
Aalborg
AIDS
BBC
Dalai
Gammeltoft
Ibrahim
Jiang
Jungle
Kupala
Kashmir
Løkke
Mekong
Memphis
Rumenia
Salisbury
Tasman
Wagner
WOSM
hohokam
world
##ministr
##ricket
telegraf
einastandandi
ársbyrjan
Skandinavia
høgrumegin
producer
allarhelst
Andalusia
Spískamarið
javnbjóðis
Pálmapílur
Bermuda
Ankusevs
Venesuela
Fólkaheilsuráð
teldupostadress
Kefalonia
Connecticut
Academy
Birmingham
